MEMORY_INITIALIZATION_RADIX=10;
MEMORY_INITIALIZATION_VECTOR=
33,
15,
63,
-15,
27,
-10,
-24,
10,
13,
67,
2,
0,
-21,
15,
17,
-5,
12,
0,
15,
12,
0,
-10,
-13,
-13,
-9,
-20,
-15,
14,
8,
-24,
30,
13,
0,
-18,
43,
-21,
15,
5,
0,
-15,
12,
20,
-14,
25,
11,
-26,
-9,
-9,
55,
2,
4,
15,
20,
5,
-4,
0,
-8,
-13,
2,
1,
-28,
-9,
1,
5,
14,
-15,
48,
15,
24,
6,
13,
10,
19,
18,
10,
2,
-33,
-9,
-30,
6,
52,
0,
-9,
16,
13,
-1,
-28,
-12,
3,
-5,
-13,
10,
-23,
-26,
-18,
-18,
2,
-14,
34,
-5,
-10,
3,
-40,
10,
-8,
2,
-27,
1,
6,
5,
-25,
-17,
16,
5,
-30,
-18,
-17,
1,
0,
5,
8,
4,
-27,
16,
26,
-48,
-20,
-3,
-15,
22,
31,
-19,
15,
-19,
-4,
-12,
11,
-15,
-9,
-10,
-6,
-29,
-21,
3,
-36,
-14,
3,
-8,
5,
-21,
-35,
8,
-7,
20,
-2,
20,
-2,
-54,
-12,
0,
2,
-6,
18,
-15,
4,
-30,
25,
-4,
-25,
-44,
-48,
-4,
37,
-44,
5,
-5,
-28,
3,
7,
-31,
-3,
-14,
-37,
-8,
-6,
4,
-10,
2,
-24,
-73,
-7,
-24,
10,
16,
0,
1,
-4,
8,
9,
0,
-17,
-34,
-43,
-28,
15,
-23,
-16,
26,
-9,
-3,
-6,
-9,
-24,
6,
-33,
11,
-9,
-11,
-16,
-8,
10,
-74,
22,
-34,
33,
17,
17,
4,
28,
-14,
-5,
-5,
-35,
-49,
7,
-10,
-12,
-34,
-13,
9,
-8,
-27,
19,
-36,
-3,
0,
-12,
-3,
-2,
-14,
-1,
-25,
16,
-86,
3,
0,
2,
-6,
1,
6,
12,
-13,
-14,
-29,
-32,
-67,
0,
-22,
10,
-3,
1,
21,
-12,
-21,
5,
3,
-24,
5,
-39,
0,
0,
-19,
-4,
-38,
4,
-102,
28,
-41,
6,
2,
4,
-10,
4,
-22,
25,
-22,
-20,
-28,
14,
-9,
16,
-11,
-18,
27,
-1,
-17,
-10,
-3,
-6,
-4,
-43,
-12,
-35,
-33,
8,
-18,
9,
-69,
4,
-17,
9,
-16,
23,
1,
8,
-4,
-15,
-11,
29,
-10,
7,
1,
5,
-33,
-15,
28,
-21,
-14,
-2,
-17,
-30,
-6,
-12,
14,
-16,
-18,
-23,
-8,
-9,
-51,
3,
-25,
14,
12,
4,
-5,
17,
-33,
4,
-2,
45,
13,
9,
16,
25,
-32,
-15,
22,
-25,
-31,
17,
-17,
-25,
-24,
-40,
34,
-37,
-6,
-13,
-1,
9,
-14,
4,
-32,
9,
-4,
10,
-10,
-3,
-24,
-10,
-35,
-3,
9,
0,
-12,
26,
-24,
-12,
11,
-25,
-30,
4,
-34,
-18,
-12,
-27,
11,
-10,
-30,
-14,
40,
0,
-13,
-10,
-45,
-1,
4,
11,
6,
-14,
-14,
1,
0,
-8,
0,
-39,
-17,
19,
-14,
-5,
11,
-30,
8,
5,
-24,
-23,
0,
-38,
41,
-20,
-38,
-5,
9,
29,
9,
29,
-22,
-6,
-26,
43,
9,
-4,
-43,
-4,
-38,
-25,
-19,
-36,
1,
17,
-9,
-16,
19,
-25,
-53,
-14,
-23,
-27,
-24,
-25,
16,
-51,
-38,
-9,
29,
7,
7,
-6,
-53,
17,
-26,
15,
13,
-16,
-34,
12,
-25,
-9,
39,
-23,
-27,
10,
-2,
-15,
-13,
-27,
-28,
3,
-28,
-35,
-27,
6,
11,
-51,
-14,
-1,
-8,
8,
29,
6,
-44,
-34,
0,
0,
25,
-72,
-44,
-19,
-26,
-26,
22,
4,
-19,
-1,
-22,
3,
3,
-45,
-28,
14,
-3,
-21,
-6,
-9,
24,
-20,
-11,
-10,
-52,
12,
13,
7,
-17,
-37,
0,
0,
23,
-98,
-11,
28,
-32,
-15,
32,
7,
-29,
3,
-35,
-10,
11,
-6,
-38,
-45,
-22,
-29,
-6,
-12,
8,
-37,
-45,
-30,
-42,
9,
16,
-2,
-35,
-71,
0,
16,
38,
-73,
-52,
10,
5,
-7,
-14,
10,
-20,
14,
-39,
17,
14,
-5,
-32,
-29,
-39,
-18,
-19,
-14,
-21,
-33,
-3,
-1,
-41,
14,
11,
-43,
-51,
-19,
14,
21,
24,
-10,
-25,
26,
-17,
-19,
-22,
3,
-28,
12,
-6,
4,
13,
20,
-26,
-46,
-19,
-3,
-18,
-20,
-4,
-28,
-48,
0,
-8,
-19,
-9,
-27,
-52,
-36,
-10,
9,
12,
25,
-38,
7,
-17,
-1,
-29,
1,
0,
-16,
-20,
-22,
14,
59,
-46,
7,
-31,
-19,
-15,
10,
-15,
-10,
-42,
2,
8,
13,
-15,
-30,
-17,
46,
-17,
17,
-1,
0,
2,
12,
17,
17,
42,
3,
21,
-19,
-13,
-3,
-7,
22,
6,
17,
7,
-9,
13,
7,
-25,
-5,
-3,
-19,
4,
2,
-8,
20,
-18,
-4,
-11,
8,
9,
-5,
21,
26,
14,
6,
-2,
-20,
14,
-4,
3,
10,
-57,
58,
-3,
13,
-5,
-7,
0,
-13,
-19,
-22,
-11,
2,
3,
-22,
-11,
6,
-21,
-2,
-6,
7,
2,
-11,
7,
29,
10,
-12,
18,
-30,
-16,
2,
-11,
-10,
-24,
25,
-14,
-21,
2,
-1,
9,
-22,
-15,
-36,
-10,
-8,
-11,
-6,
-31,
-3,
-16,
20,
1,
13,
-26,
-27,
-8,
11,
-8,
-21,
11,
-25,
32,
-14,
5,
-14,
-5,
57,
2,
-23,
-27,
-18,
7,
-30,
4,
-26,
-14,
-17,
-19,
4,
-7,
-13,
-2,
19,
-4,
10,
-5,
-4,
6,
15,
-4,
-8,
13,
-14,
-3,
31,
0,
-35,
16,
24,
-11,
0,
-10,
-2,
-16,
-21,
-2,
-30,
-10,
-2,
3,
26,
-6,
24,
4,
25,
0,
-8,
5,
-33,
-20,
-7,
0,
-3,
-2,
-35,
-8,
0,
-29,
0,
12,
-10,
11,
28,
-18,
8,
-2,
-35,
6,
-4,
10,
-14,
24,
15,
-38,
33,
-21,
15,
13,
-7,
10,
26,
-7,
-7,
-12,
-38,
-22,
-33,
6,
-2,
-12,
-24,
-28,
-16,
-33,
-3,
-11,
-5,
-14,
-41,
5,
-13,
-9,
-27,
11,
-1,
-43,
0,
-28,
42,
28,
-11,
22,
13,
-30,
-6,
-2,
-12,
-8,
-5,
-6,
-11,
-18,
-44,
-2,
11,
6,
13,
-12,
-13,
8,
-13,
-7,
-20,
8,
-22,
-12,
-6,
-68,
-6,
-22,
47,
6,
10,
-20,
-7,
-58,
-29,
4,
-32,
-31,
14,
-20,
-12,
-23,
-37,
-1,
17,
-10,
-5,
-1,
-25,
-7,
-34,
15,
-17,
-12,
-23,
-16,
-12,
-48,
4,
-12,
46,
19,
-7,
-23,
-16,
-23,
-4,
-17,
9,
-6,
-4,
2,
-19,
-25,
-26,
1,
-10,
1,
-3,
-45,
-4,
-30,
-36,
18,
-26,
-29,
-23,
4,
-9,
-19,
0,
-42,
57,
-8,
-10,
-8,
-16,
-27,
-4,
-4,
23,
-15,
14,
-1,
0,
-59,
-29,
-13,
19,
-3,
-23,
-50,
-26,
3,
-30,
24,
-15,
-17,
-36,
-12,
-6,
-6,
16,
-5,
45,
11,
-5,
-8,
-11,
-47,
-13,
-3,
15,
6,
-6,
-13,
3,
-50,
-24,
4,
-8,
-31,
19,
-34,
-30,
-9,
-27,
-1,
-1,
-13,
-30,
0,
-12,
-11,
1,
-2,
-10,
9,
23,
6,
-10,
-36,
-9,
0,
-14,
-1,
3,
-44,
-15,
-43,
-33,
-12,
-20,
-28,
25,
-30,
-31,
-11,
-20,
-5,
-23,
-4,
2,
30,
-17,
-21,
-11,
-10,
10,
-20,
6,
-15,
12,
-28,
0,
-18,
-20,
-7,
-26,
-53,
7,
-57,
-42,
-29,
-3,
-13,
13,
-59,
-3,
-8,
-49,
-30,
-30,
-2,
-22,
23,
11,
5,
-8,
-37,
5,
-24,
3,
-9,
-4,
-27,
-4,
-22,
5,
-10,
-22,
-30,
16,
-20,
-35,
-8,
-46,
-39,
-10,
-30,
-23,
-29,
-10,
-35,
-11,
1,
-12,
24,
7,
-6,
7,
-21,
10,
-28,
-15,
14,
-8,
-12,
-2,
-30,
-17,
14,
-5,
-72,
3,
-30,
-39,
-14,
-95,
-35,
6,
-31,
-10,
-6,
-34,
-20,
-36,
-13,
-12,
17,
-10,
4,
-16,
-38,
-16,
-7,
8,
25,
-112,
-52,
10,
-32,
-31,
13,
-29,
-41,
-2,
-24,
-27,
-16,
-33,
-46,
4,
-44,
11,
-9,
-13,
-2,
-36,
-6,
-17,
-47,
25,
-4,
-11,
-29,
-21,
15,
1,
5,
-22,
-54,
17,
-27,
-34,
22,
4,
-49,
-6,
-19,
-6,
-4,
-26,
-8,
-5,
-35,
14,
-27,
-22,
-28,
-26,
-26,
-20,
-14,
25,
0,
-3,
-20,
-51,
5,
30,
17,
-9,
-39,
44,
4,
-20,
-18,
-22,
-25,
3,
-38,
-9,
-4,
2,
-31,
-26,
-58,
-11,
-7,
-20,
-16,
-27,
-41,
5,
-15,
-4,
-59,
-45,
-38,
-32,
6,
30,
19,
-2,
-32,
2,
-29,
-21,
-19,
7,
-20,
4,
-21,
-4,
3,
1,
-11,
-19,
-36,
-4,
-17,
-19,
-23,
-40,
-28,
18,
9,
-2,
-32,
-25,
-15,
-13,
33,
1,
18,
4,
-43,
-24,
12,
-6,
-6,
-17,
-11,
17,
-40,
-9,
-28,
9,
-18,
-25,
-30,
-13,
-2,
-10,
-30,
-14,
-35,
31,
19,
13,
-31,
3,
-14,
5,
-23,
33,
-10,
-25,
4,
17,
-7,
-3,
33,
-21,
-15,
3,
-11,
4,
10,
71,
0,
-16,
1,
17,
17,
-8,
-16,
-20,
13,
6,
6,
11,
1,
40,
-1,
-4,
-8,
11,
2,
15,
7,
-4,
-20,
-13,
-1,
-27,
-11,
-9,
17,
-24,
-52,
42,
7,
-9,
-10,
0,
0,
-6,
1,
-31,
-8,
-8,
-6,
-26,
4,
0,
-8,
31,
15,
-10,
2,
8,
12,
24,
-5,
0,
-11,
-22,
27,
-23,
-6,
4,
-37,
71,
9,
-17,
-1,
-20,
13,
-21,
12,
-41,
-4,
6,
-17,
-43,
17,
10,
-19,
13,
20,
13,
13,
-18,
18,
42,
-19,
-1,
-12,
-19,
31,
-7,
0,
3,
7,
48,
0,
5,
-22,
-21,
-15,
-16,
-5,
-48,
12,
-3,
-15,
18,
7,
0,
-3,
24,
20,
22,
-3,
-11,
-14,
7,
4,
2,
9,
-22,
7,
2,
-14,
22,
10,
18,
6,
1,
-4,
-19,
-7,
-24,
-6,
-49,
0,
4,
-1,
21,
-19,
7,
-12,
17,
-3,
10,
-2,
-6,
-22,
-11,
8,
-17,
1,
-21,
-2,
17,
-28,
10,
4,
20,
-26,
-1,
-27,
-31,
-23,
-18,
1,
-45,
-28,
-14,
12,
7,
-22,
9,
-24,
22,
-4,
31,
3,
16,
-31,
13,
-19,
0,
-15,
-48,
18,
-10,
0,
-13,
14,
-25,
-1,
11,
-17,
-38,
5,
-23,
-6,
-30,
-24,
11,
-8,
-29,
-71,
16,
-27,
36,
4,
20,
1,
19,
-27,
1,
-20,
-43,
-21,
-20,
-8,
9,
-19,
6,
12,
-6,
-21,
-6,
-20,
-17,
-20,
-7,
-9,
-55,
-21,
-1,
10,
-8,
-58,
1,
-6,
38,
3,
19,
12,
-36,
-28,
-27,
-6,
-54,
-73,
12,
-44,
10,
-34,
-17,
27,
-9,
-16,
4,
-23,
-35,
-19,
-23,
-14,
-37,
-29,
-7,
-28,
2,
-31,
-1,
-32,
19,
15,
12,
0,
-23,
-44,
11,
-3,
-21,
15,
1,
-17,
18,
-40,
-4,
2,
0,
-34,
19,
-8,
-21,
-6,
6,
6,
-18,
-16,
-4,
-25,
-1,
-10,
2,
-44,
13,
22,
-1,
-15,
-20,
-57,
3,
-22,
17,
6,
-6,
-56,
18,
-33,
-30,
-6,
-11,
-14,
15,
-34,
-26,
-13,
-10,
-20,
-44,
2,
0,
10,
24,
8,
17,
-6,
1,
8,
15,
21,
-13,
-48,
0,
0,
20,
-4,
7,
-49,
-5,
-46,
17,
-20,
13,
0,
-1,
-46,
-42,
2,
14,
-43,
-11,
-7,
-15,
-6,
9,
12,
0,
-19,
29,
28,
-8,
4,
5,
-42,
32,
-30,
9,
17,
6,
-45,
-2,
-71,
-16,
-3,
9,
-17,
37,
-52,
-17,
-20,
-26,
-61,
-14,
-7,
-36,
9,
4,
1,
26,
-27,
-2,
-7,
15,
-16,
24,
-46,
11,
-15,
14,
-20,
-9,
-43,
17,
-46,
0,
-11,
-7,
-15,
30,
-27,
-8,
-11,
-32,
-69,
3,
-11,
-28,
37,
-14,
-4,
-7,
-29,
12,
7,
5,
-4,
-3,
-47,
15,
-38,
14,
9,
-6,
-32,
-32,
-53,
-20,
-7,
-50,
-20,
-1,
-53,
-40,
-26,
-37,
-63,
-10,
-21,
-5,
7,
5,
-3,
-9,
-32,
13,
27,
-9,
-2,
-48,
-47,
2,
-18,
-30,
12,
-26,
-36,
-31,
-39,
-7,
-24,
-32,
-22,
17,
-38,
-28,
-23,
-36,
-39,
-23,
-9,
-15,
-6,
10,
11,
-10,
-21,
-10,
13,
29,
-5,
-121,
-60,
11,
-12,
-36,
-1,
2,
-47,
26,
-44,
-8,
-1,
-29,
10,
-7,
-31,
-30,
-11,
-17,
-10,
-13,
-2,
-13,
-43,
2,
-29,
5,
-21,
-21,
25,
13,
26,
-18,
-27,
28,
-12,
-54,
7,
10,
-56,
14,
-38,
1,
5,
-18,
0,
5,
-54,
10,
-17,
-27,
-28,
-23,
-10,
4,
-48,
-9,
-27,
22,
-17,
-44,
19,
45,
28,
13,
-50,
47,
-19,
-25,
-4,
10,
-69,
12,
-26,
1,
3,
20,
0,
-45,
-53,
-16,
-16,
3,
-20,
-10,
-24,
8,
-27,
25,
-17,
-23,
-42,
-36,
9,
23,
13,
5,
-57,
39,
-6,
-7,
-39,
-24,
-28,
31,
-35,
-7,
7,
3,
-24,
-26,
-36,
-13,
-18,
-33,
-17,
-19,
-22,
22,
-2,
27,
-8,
-21,
-32,
-22,
15,
-3,
-13,
25,
-46,
12,
1,
-9,
-35,
-20,
-28,
9,
-76,
3,
-14,
21,
17,
-17,
-63,
-13,
-2,
-33,
-7,
-36,
-15,
19,
-5,
0,
-1,
3,
-47,
39,
-10,
30,
-18,
-15,
3,
34,
-16,
-8,
-6,
15,
10,
-31,
10,
0,
-28,
27,
13,
28,
3,
-12,
10,
3,
-19,
-38,
-11,
8,
11,
-19,
13,
2,
-7,
7,
4,
14,
-6,
-12,
2,
-20,
19,
-20,
4,
-9,
18,
-26,
-6,
21,
-35,
-1,
-33,
-4,
-18,
5,
-10,
4,
-28,
-67,
13,
-13,
-9,
-24,
-2,
-18,
-18,
19,
-9,
26,
-7,
-18,
-17,
64,
8,
8,
9,
5,
7,
10,
6,
15,
-40,
54,
0,
-2,
0,
0,
5,
11,
5,
-66,
4,
-12,
-5,
-43,
10,
15,
-5,
7,
8,
24,
11,
18,
9,
35,
1,
-23,
14,
-6,
-3,
-21,
22,
17,
-39,
63,
1,
-11,
-10,
-21,
0,
-10,
6,
-44,
1,
-24,
21,
4,
-3,
11,
7,
10,
23,
4,
10,
16,
11,
7,
-23,
-10,
-5,
-9,
2,
-11,
7,
15,
-17,
49,
-20,
2,
-8,
-20,
-16,
22,
9,
-45,
-4,
-13,
2,
16,
-16,
6,
-2,
34,
-2,
23,
13,
0,
-38,
25,
7,
-24,
35,
-35,
4,
-11,
7,
14,
19,
22,
-30,
-17,
-41,
-21,
0,
23,
0,
-46,
-24,
-22,
-12,
-30,
-32,
-6,
-22,
28,
12,
-1,
2,
-9,
-6,
18,
-14,
-17,
-3,
-11,
30,
0,
-15,
3,
7,
27,
-10,
-8,
-14,
-26,
-12,
20,
-6,
-56,
-10,
-10,
2,
27,
-63,
37,
-3,
10,
1,
11,
23,
7,
-21,
-11,
-17,
-33,
-16,
-9,
-31,
11,
-7,
25,
-31,
29,
-42,
-12,
-19,
-17,
18,
9,
14,
-47,
-34,
0,
-19,
1,
-35,
3,
-13,
17,
23,
9,
-3,
-1,
-30,
-30,
12,
-38,
-60,
-5,
-33,
-2,
9,
28,
-26,
-12,
-44,
2,
-33,
-60,
22,
-1,
15,
-69,
-25,
-27,
-11,
19,
-12,
0,
-29,
36,
39,
-2,
-3,
0,
-45,
-27,
-18,
3,
12,
-6,
-50,
-1,
-7,
6,
-42,
1,
-53,
-4,
-22,
-54,
23,
-5,
-22,
-28,
-40,
-24,
-20,
-15,
14,
5,
-45,
9,
9,
-1,
3,
18,
-51,
2,
-28,
3,
-6,
-8,
-52,
-19,
-10,
-4,
-32,
0,
-59,
-14,
-2,
-13,
-2,
-9,
-22,
-23,
-12,
-36,
-21,
-4,
35,
12,
-38,
23,
21,
-8,
4,
-20,
-35,
17,
-27,
23,
-9,
0,
-33,
-26,
2,
-14,
-29,
-9,
-17,
9,
-33,
-32,
-19,
-3,
-63,
-37,
-33,
-29,
-6,
-34,
18,
21,
-42,
25,
17,
17,
17,
13,
-4,
-4,
-39,
25,
5,
-16,
-16,
-52,
-22,
12,
-14,
-9,
4,
0,
-16,
-19,
-21,
-34,
-60,
-34,
-41,
-20,
3,
-34,
33,
20,
-24,
12,
-4,
-9,
20,
21,
-43,
28,
-43,
-8,
18,
-17,
-30,
-55,
-15,
4,
14,
12,
-11,
36,
-40,
-14,
-14,
0,
-61,
0,
-30,
-18,
0,
4,
39,
13,
-32,
23,
12,
9,
-8,
-8,
-31,
34,
-43,
-10,
6,
-23,
-23,
-16,
-12,
9,
-10,
-23,
16,
20,
-42,
-11,
10,
4,
-46,
-13,
-24,
-32,
2,
3,
-1,
-19,
-53,
-13,
-6,
-6,
26,
-67,
-44,
24,
-46,
-54,
-16,
-14,
-8,
11,
5,
1,
1,
3,
5,
-23,
-46,
-45,
7,
-7,
-30,
12,
-5,
-20,
-47,
12,
39,
-9,
-26,
7,
16,
4,
-6,
-66,
-47,
37,
-37,
-32,
-8,
9,
-8,
7,
17,
-11,
5,
-24,
-1,
14,
-14,
-36,
-26,
13,
-66,
-3,
1,
-9,
-36,
25,
9,
16,
-57,
-58,
46,
10,
24,
-3,
-75,
51,
-22,
-47,
-12,
9,
-3,
24,
-19,
-19,
26,
-21,
-1,
27,
-42,
-37,
-2,
-31,
-19,
7,
38,
3,
-27,
-2,
10,
23,
-19,
-7,
27,
0,
41,
8,
-68,
42,
-31,
-35,
-49,
-10,
-20,
-9,
-12,
-46,
-30,
-13,
16,
-33,
-23,
1,
-10,
4,
-23,
-16,
22,
-13,
-11,
6,
-30,
6,
-29,
-3,
25,
2,
22,
-1,
-71,
11,
-24,
-22,
-19,
9,
-54,
9,
-19,
-1,
-4,
17,
37,
-33,
-39,
-13,
-14,
-15,
-7,
18,
36,
0,
6,
0,
0,
-34,
-28,
-29,
60,
-5,
-41,
5,
-63,
-7,
-52,
-29,
-15,
-5,
-35,
5,
-40,
-41,
-30,
30,
40,
-17,
-91,
-31,
-19,
-51,
-18,
-21,
16,
14,
13,
19,
11,
-1,
-31,
59,
15,
13,
-11,
-2,
-9,
-1,
-1,
-9,
-33,
-14,
8,
-14,
22,
-14,
-49,
-63,
-12,
14,
-13,
-6,
-3,
11,
-12,
-4,
-3,
-9,
-21,
-18,
-7,
-21,
-4,
8,
0,
-11,
5,
15,
4,
20,
8,
0,
-5,
-24,
20,
-12,
18,
3,
-39,
-17,
-12,
-9,
-17,
-18,
-5,
14,
18,
0,
-3,
12,
-11,
-2,
4,
20,
9,
16,
-7,
-4,
7,
-15,
6,
15,
2,
-2,
0,
-16,
9,
-17,
11,
19,
-33,
-1,
0,
2,
-17,
-6,
12,
32,
-14,
2,
5,
-12,
-18,
-4,
9,
-27,
-17,
16,
-15,
-31,
-13,
-6,
-39,
24,
-14,
7,
-6,
13,
14,
6,
18,
0,
-24,
13,
-19,
0,
-37,
-28,
-2,
19,
31,
-32,
-5,
-19,
9,
-4,
-32,
0,
-24,
2,
14,
6,
33,
15,
-33,
41,
4,
-19,
-3,
5,
9,
-4,
1,
20,
-38,
-3,
-11,
-28,
-55,
-21,
4,
15,
3,
-36,
-37,
-8,
6,
0,
-54,
22,
-15,
6,
6,
-24,
2,
-22,
-53,
12,
14,
8,
-12,
9,
-3,
0,
15,
12,
-34,
-22,
-34,
-5,
-56,
-20,
11,
12,
11,
-18,
0,
-14,
11,
0,
-46,
4,
8,
7,
12,
-13,
-8,
-11,
-43,
27,
-2,
-14,
13,
-14,
13,
-12,
-5,
26,
-81,
14,
-10,
18,
-32,
-45,
-4,
15,
3,
-23,
-38,
-19,
-8,
18,
-58,
11,
4,
14,
12,
-13,
9,
-9,
-27,
-3,
1,
-38,
-35,
-1,
-32,
-59,
6,
-10,
-71,
14,
-16,
-20,
-38,
-55,
-12,
-10,
-10,
-31,
-10,
-42,
-11,
-10,
-25,
1,
-11,
-8,
4,
-25,
16,
13,
-33,
-51,
-12,
-20,
-45,
26,
-54,
-52,
6,
-13,
-70,
10,
-26,
-10,
-33,
-26,
10,
18,
-1,
-25,
-34,
-23,
-12,
3,
-21,
-27,
-38,
-18,
18,
4,
32,
0,
-29,
-33,
-31,
-24,
4,
0,
-41,
-80,
0,
-17,
-18,
16,
-22,
4,
3,
-5,
-12,
-17,
-16,
-59,
-30,
-10,
-11,
-38,
11,
-11,
-8,
17,
43,
-10,
22,
-6,
-28,
-36,
-34,
0,
9,
-6,
3,
-101,
11,
9,
18,
1,
-25,
14,
-12,
-25,
10,
19,
-21,
-20,
0,
29,
-11,
-18,
0,
-22,
-42,
7,
32,
16,
31,
2,
-2,
-16,
-16,
-1,
21,
0,
-1,
-105,
2,
0,
8,
-12,
-5,
-27,
8,
3,
-9,
25,
-12,
-38,
-21,
7,
-34,
-14,
4,
39,
-25,
2,
19,
-25,
26,
11,
-25,
-8,
-20,
5,
3,
-42,
8,
-65,
7,
-9,
1,
9,
6,
-24,
10,
6,
6,
5,
-13,
1,
-64,
0,
-16,
-18,
-9,
19,
-29,
-2,
23,
-1,
8,
22,
-12,
15,
-2,
10,
18,
-21,
-13,
-39,
-27,
3,
51,
-3,
-4,
17,
2,
-27,
-12,
14,
-16,
-7,
-53,
6,
-12,
20,
15,
3,
-62,
27,
8,
-4,
22,
-59,
-6,
-1,
8,
15,
-7,
-47,
5,
3,
21,
-1,
8,
-18,
-4,
15,
1,
-20,
2,
-13,
-6,
-4,
-41,
2,
17,
20,
21,
14,
-35,
3,
-7,
-11,
26,
-97,
3,
4,
0,
-18,
-41,
-10,
6,
22,
5,
19,
-4,
-15,
31,
17,
-1,
-29,
-24,
-22,
-32,
0,
-11,
-17,
-6,
16,
3,
-5,
-53,
12,
28,
5,
19,
-4,
-13,
45,
37,
9,
-9,
2,
17,
26,
-19,
-29,
31,
-3,
7,
24,
13,
-13,
13,
-24,
-52,
5,
20,
0,
1,
13,
13,
13,
-33,
-37,
27,
2,
24,
22,
-3,
48,
-12,
-15,
-53,
-7,
11,
10,
-13,
-20,
-9,
11,
-2,
11,
18,
-17,
-8,
-1,
-19,
19,
12,
-1,
-10,
4,
6,
2,
-16,
-27,
21,
-13,
64,
14,
20,
20,
-13,
8,
-27,
-23,
14,
-4,
14,
-57,
-45,
22,
-5,
-17,
-3,
-18,
4,
-16,
-37,
17,
34,
8,
23,
-1,
-6,
1,
26,
-30,
2,
2,
10,
3,
-13,
-13,
1,
-16,
-13,
-21,
-51,
3,
21,
-18,
0,
-29,
25,
-40,
8,
-28,
-10,
-10,
-21,
6,
25,
-16,
0,
10,
-28,
-1,
-9,
-11,
37,
-33,
-28,
17,
-38,
-19,
13,
-26,
-13,
-26,
-45,
1,
-13,
-28,
-58,
-20,
47,
-9,
0,
-20,
3,
1,
-6,
31,
23,
13,
10,
14,
-21,
-27,
33,
44,
-26,
-18,
5,
-15,
-31,
13,
12,
-13,
10,
-22,
2,
5,
9,
13,
-57,
-49,
1,
11,
-6,
-2,
-18,
26,
-13,
35,
11,
-26,
1,
-10,
6,
30,
0,
24,
4,
-22,
8,
2,
-26,
40,
-21,
-18,
-6,
-15,
1,
0,
10,
17,
-32,
-50,
3,
-4,
-35,
-1,
13,
20,
8,
-2,
8,
-13,
-6,
-13,
11,
1,
-11,
31,
-7,
-32,
13,
-36,
-13,
18,
1,
-3,
6,
-22,
7,
-15,
-2,
-3,
-21,
-19,
-13,
-1,
-20,
-33,
5,
8,
10,
-9,
-32,
-24,
17,
-34,
-2,
4,
-34,
24,
7,
-19,
20,
-22,
-22,
17,
3,
-7,
14,
-28,
9,
-31,
6,
-9,
-38,
-47,
-34,
-7,
-21,
-18,
-21,
17,
-10,
-16,
-18,
-13,
-11,
-3,
-19,
-2,
-35,
-4,
36,
-31,
2,
-33,
-30,
2,
-18,
14,
-4,
-1,
-8,
-31,
20,
11,
-38,
-29,
-54,
-6,
-54,
-9,
0,
-3,
-1,
9,
-40,
-2,
18,
10,
-23,
13,
-9,
22,
9,
-20,
0,
-10,
-65,
19,
16,
6,
43,
-15,
3,
-43,
15,
-19,
-67,
-9,
-34,
-15,
-62,
1,
-17,
1,
-3,
-13,
-40,
-45,
0,
9,
-27,
-3,
3,
2,
-12,
-2,
-13,
13,
-61,
26,
-11,
6,
33,
10,
-12,
-47,
0,
0,
-11,
-28,
-12,
-10,
-12,
-7,
-10,
29,
0,
-2,
-3,
-58,
11,
-29,
-9,
-2,
-1,
-14,
-9,
12,
8,
-7,
-70,
16,
-29,
-5,
-48,
15,
-58,
-70,
8,
0,
-3,
-14,
-14,
-22,
1,
-12,
-6,
9,
22,
1,
-27,
-14,
11,
-26,
-10,
-13,
0,
16,
-26,
0,
-9,
13,
-38,
9,
-27,
-23,
-18,
11,
-50,
-79,
9,
-7,
45,
0,
-2,
2,
-4,
-24,
-4,
-4,
-6,
-35,
-39,
-2,
0,
-21,
-50,
-62,
-19,
22,
3,
-22,
0,
2,
-37,
0,
-40,
-63,
4,
-5,
6,
-46,
-4,
-16,
5,
2,
3,
-9,
8,
7,
-13,
23,
-50,
-70,
8,
9,
-25,
-38,
-2,
-58,
-8,
16,
21,
-21,
-2,
-4,
-9,
-18,
-37,
-51,
27,
10,
28,
-29,
4,
-12,
-12,
6,
-9,
-23,
-11,
2,
-2,
13,
1,
-7,
-29,
2,
-43,
-32,
3,
-28,
-4,
49,
12,
-23,
33,
17,
-32,
1,
-52,
-16,
-7,
-30,
0,
9,
-13,
6,
14,
-22,
0,
-43,
0,
5,
-17,
14,
10,
-5,
-15,
-24,
-28,
5,
-4,
2,
-13,
10,
8,
-38,
-15,
-1,
-36,
0,
-46,
-10,
-2,
-32,
-2,
0,
12,
5,
22,
-16,
10,
-29,
8,
-1,
14,
1,
-6,
10,
-10,
-12,
-43,
7,
4,
17,
-3,
18,
-2,
-21,
40,
-18,
14,
-9,
-8,
-10,
-17,
-35,
0,
0,
18,
-21,
13,
-13,
-4,
-9,
-7,
-3,
-20,
1,
-18,
-19,
-30,
-14,
9,
28,
21,
11,
0,
55,
0,
-47,
14,
-68,
11,
0,
-9,
0,
-10,
-41,
7,
24,
-7,
-8,
17,
4,
0,
9,
27,
10,
-7,
-12,
8,
-7,
2,
16,
1,
22,
2,
1,
-22,
14,
-18,
-23,
25,
-54,
18,
-31,
9,
4,
-44,
-11,
9,
9,
-2,
9,
0,
-14,
-18,
4,
35,
21,
-11,
-26,
7,
-3,
-5,
16,
18,
12,
19,
31,
-37,
13,
13,
-42,
49,
0,
6,
1,
-9,
12,
-26,
-10,
-31,
0,
12,
-46,
-14,
-10,
16,
8,
16,
29,
-12,
-1,
-21,
-35,
-10,
31,
-11,
0,
-2,
-3,
-23,
-25,
15,
-20,
16,
0,
5,
28,
4,
-15,
-31,
5,
10,
17,
-10,
-13,
-5,
0,
37,
-12,
22,
11,
7,
-35,
-7,
11,
-4,
12,
-16,
13,
36,
2,
-34,
-77,
2,
-11,
16,
9,
9,
41,
-7,
-30,
-23,
-25,
25,
6,
10,
-32,
1,
17,
22,
-3,
26,
14,
6,
-3,
-23,
8,
-2,
26,
13,
5,
-22,
10,
-48,
-37,
-11,
0,
20,
2,
-4,
-25,
-10,
7,
-28,
3,
-26,
-3,
4,
-72,
15,
-19,
14,
-32,
28,
-9,
10,
-14,
-35,
35,
5,
-9,
-10,
13,
-21,
-25,
-11,
-9,
39,
-33,
-7,
10,
-11,
-27,
9,
-12,
-15,
-10,
-48,
16,
-20,
-39,
-11,
-46,
44,
-9,
42,
59,
-6,
-11,
-37,
2,
20,
-18,
0,
29,
-5,
-16,
-13,
20,
-9,
-47,
-13,
-20,
-15,
35,
-22,
7,
18,
-1,
36,
6,
6,
-12,
-38,
-93,
1,
20,
-19,
-18,
-3,
-1,
10,
36,
-12,
-15,
-12,
-19,
-8,
18,
2,
7,
2,
-5,
-4,
-2,
-3,
26,
-21,
2,
3,
0,
21,
-3,
19,
20,
-31,
-33,
-9,
0,
-29,
-9,
-4,
-19,
8,
9,
9,
15,
-20,
-15,
2,
-14,
-4,
6,
-3,
-19,
3,
-37,
-4,
-7,
12,
0,
7,
-38,
14,
15,
-3,
-15,
-16,
-29,
-15,
-16,
-22,
-21,
4,
5,
-6,
29,
-24,
13,
-11,
-8,
3,
11,
-21,
-28,
-8,
-4,
-10,
-6,
36,
-5,
-26,
-21,
15,
-23,
27,
-25,
-3,
-7,
-17,
-24,
-25,
-12,
-59,
-1,
18,
20,
17,
-3,
-8,
0,
-8,
-16,
-31,
8,
-8,
2,
-13,
19,
6,
-4,
24,
-2,
-6,
4,
21,
-15,
18,
-15,
17,
-36,
-47,
-37,
-45,
-5,
-45,
2,
-18,
20,
18,
-7,
-5,
2,
6,
-32,
-47,
-1,
15,
-8,
0,
21,
6,
-13,
4,
1,
-21,
2,
39,
-3,
-7,
-26,
15,
-21,
-5,
-23,
-16,
-12,
-39,
9,
0,
8,
28,
-23,
-12,
-29,
7,
-51,
-25,
-18,
0,
-71,
-7,
7,
-10,
-11,
-15,
-19,
11,
1,
60,
14,
-56,
-35,
12,
-9,
11,
-29,
-1,
1,
-17,
-9,
-18,
8,
-5,
-13,
-14,
-18,
-28,
-38,
5,
0,
-6,
-16,
36,
-2,
-12,
-5,
-27,
16,
0,
-25,
-40,
0,
-83,
-33,
21,
-11,
31,
-40,
0,
-7,
6,
-3,
-1,
6,
-6,
-27,
-26,
-43,
-21,
-52,
-6,
-22,
14,
5,
-6,
17,
-27,
4,
-17,
49,
-46,
-15,
-38,
-13,
-30,
-4,
-1,
-27,
14,
-5,
-10,
6,
14,
-9,
7,
13,
-31,
-86,
-1,
-25,
-10,
-55,
-21,
-51,
-1,
12,
-9,
-15,
-14,
-16,
-44,
-21,
-30,
-33,
15,
1,
-1,
13,
12,
-16,
-3,
12,
-17,
-32,
19,
-11,
-19,
2,
-18,
-95,
-27,
4,
-9,
0,
16,
-86,
0,
34,
-8,
7,
-38,
2,
1,
-1,
-32,
-33,
6,
0,
25,
11,
4,
-13,
14,
12,
-7,
-53,
-15,
-22,
-22,
8,
3,
-33,
-7,
-16,
-32,
-6,
-20,
-56,
-23,
29,
22,
-33,
-68,
22,
-16,
10,
-55,
-21,
4,
-36,
-16,
-21,
0,
-16,
9,
-6,
33,
-82,
5,
7,
-11,
-9,
19,
25,
-21,
-5,
-36,
-15,
-2,
24,
-23,
12,
-24,
-11,
-44,
8,
-30,
-13,
-36,
9,
-2,
-49,
17,
-1,
0,
-26,
3,
-22,
-17,
-16,
0,
11,
-20,
-9,
6,
-1,
9,
0,
-24,
2,
-12,
1,
1,
7,
-54,
-39,
-24,
-41,
-14,
13,
-25,
-10,
-9,
-18,
-19,
24,
4,
-26,
0,
2,
11,
12,
11,
6,
14,
-22,
14,
1,
3,
-9,
0,
9,
-22,
-3,
6,
5,
-23,
-72,
-33,
-15,
-12,
0,
-25,
-8,
-28,
-26,
-4,
28,
5,
-39,
-6,
-35,
-13,
-6,
-11,
17,
7,
7,
20,
-9,
-5,
1,
0,
20,
-4,
0,
-3,
0,
11,
-57,
-35,
-10,
0,
-1,
-26,
-2,
-14,
-32,
26,
10,
-3,
-11,
4,
-51,
11,
-16,
13,
-8,
-11,
2,
7,
-10,
-1,
-20,
-22,
2,
-10,
-3,
5,
15,
-1,
-74,
-5,
29,
4,
0,
-6,
-8,
-15,
-11,
-2,
10,
20,
-23,
8,
-34,
3,
18,
-10,
-7,
0,
-4,
-14,
10,
-2,
-2,
-10,
6,
3,
-17,
-15,
-25,
1,
-63,
-8,
-1,
8,
34,
-19,
11,
-13,
7,
30,
4,
-10,
-17,
0,
20,
26,
10,
-8,
17,
-5,
-5,
18,
0,
15,
0,
17,
10,
-15,
13,
7,
-49,
1,
-25,
-14,
0,
-21,
23,
-24,
-3,
10,
-28,
42,
0,
-15,
-45,
1,
-9,
-4,
-19,
-8,
17,
-5,
-11,
-21,
30,
1,
12,
-17,
11,
-4,
2,
-3,
8,
-8,
-29,
-20,
21,
-19,
-14,
2,
16,
-30,
-10,
-29,
-5,
-5,
-27,
4,
-39,
-4,
-11,
0,
31,
10,
-19,
-19,
12,
7,
28,
-9,
-22,
-43,
4,
-24,
0,
6,
-42,
-36,
39,
-9,
-37,
18,
2,
-6,
-11,
-65,
11,
-7,
-49,
-1,
-44,
38,
10,
2,
54,
14,
-5,
-18,
-20,
25,
9,
-14,
-9,
-45,
-7,
-20,
18,
-41,
-26,
5,
-6,
4,
-38,
-4,
12,
35,
-28,
48,
-7,
-2,
-4,
-18,
-90,
13,
2,
-35,
-25,
-8,
-7,
-25,
-3,
-9,
12,
-11,
-16,
-10,
35,
-33,
5,
-7,
-8,
-9,
-19,
-8,
7,
-2,
-12,
0,
-17,
5,
-20,
19,
-1,
-27,
-35,
-7,
27,
-23,
-35,
2,
6,
16,
4,
-30,
-1,
-22,
-8,
-31,
26,
-7,
7,
-9,
-3,
15,
-25,
9,
30,
9,
-18,
17,
-44,
14,
-12,
17,
5,
-31,
-30,
-8,
-8,
-29,
-4,
-22,
13,
11,
15,
-19,
-19,
-12,
-35,
-19,
9,
2,
-4,
19,
29,
14,
-16,
30,
20,
5,
-23,
4,
-33,
23,
-33,
-22,
-12,
-4,
-15,
-45,
15,
-74,
6,
17,
1,
7,
0,
-18,
-23,
4,
-13,
-47,
7,
-30,
-14,
-2,
-3,
10,
-25,
30,
1,
-21,
12,
36,
-12,
26,
-38,
9,
2,
23,
-27,
-28,
7,
-28,
5,
-17,
14,
9,
-8,
-20,
-37,
0,
-69,
-66,
-5,
-17,
-38,
-8,
6,
-4,
-3,
16,
6,
-20,
-14,
31,
-6,
4,
-49,
8,
-3,
19,
-22,
-35,
-4,
-23,
0,
2,
9,
-2,
-20,
-27,
-28,
-3,
-27,
-19,
9,
-17,
-33,
7,
-3,
-23,
2,
14,
18,
-14,
-16,
12,
16,
-94,
-14,
26,
-19,
24,
-23,
-25,
8,
19,
6,
-7,
1,
-2,
0,
-9,
-24,
-22,
-29,
4,
-33,
-70,
-11,
24,
37,
-15,
24,
0,
44,
-10,
-11,
-36,
-8,
-67,
2,
3,
-9,
27,
-30,
21,
-12,
27,
13,
-19,
4,
-8,
-28,
-31,
-20,
-14,
-56,
-9,
-33,
-24,
25,
-7,
0,
-41,
12,
-14,
13,
-29,
-25,
-28,
2,
10,
2,
6,
-16,
13,
-10,
9,
-30,
41,
9,
-26,
13,
-11,
-90,
0,
16,
-10,
-23,
-11,
-67,
-4,
6,
2,
-15,
-78,
6,
-3,
16,
2,
-39,
-5,
-4,
24,
8,
12,
-19,
4,
7,
-14,
-29,
-13,
0,
6,
-5,
18,
-80,
-6,
-22,
-9,
-2,
6,
-47,
10,
37,
19,
1,
-53,
-2,
-1,
-2,
-56,
-48,
14,
-11,
-1,
-6,
0,
-30,
6,
17,
18,
-70,
4,
25,
-21,
19,
11,
-14,
8,
-1,
-34,
-16,
-26,
-46,
-17,
9,
-12,
-22,
-91,
1,
13,
-25,
-36,
-10,
27,
-13,
-7,
2,
20,
-1,
22,
-19,
23,
-26,
-15,
11,
4,
-7,
2,
9,
-14,
-3,
-41,
-14,
-9,
7,
-15,
16,
-81,
-13,
-75,
-12,
-10,
-9,
-18,
-2,
0,
-41,
-20,
-9,
-1,
-20,
3,
2,
-23,
-2,
-5,
2,
-13,
2,
-1,
8,
-14,
-27,
-35,
9,
0,
25,
-11,
14,
-118,
-34,
-67,
-8,
-7,
4,
-9,
-22,
-7,
-27,
-1,
15,
14,
-41,
20,
-10,
-2,
-20,
-6,
5,
7,
1,
2,
17,
-9,
-1,
21,
34,
-12,
-24,
2,
39,
-42,
-53,
-43,
-25,
19,
1,
7,
0,
10,
3,
-27,
30,
-5,
-33,
-9,
-10,
1,
-16,
-1,
7,
-21,
-21,
5,
-21,
-9,
3,
8,
38,
-22,
-17,
-3,
28,
-2,
-48,
-67,
3,
-27,
11,
-22,
-26,
25,
-16,
25,
6,
3,
-29,
-11,
-44,
14,
-7,
5,
36,
-14,
-2,
4,
-1,
-8,
9,
1,
-12,
0,
1,
-8,
8,
24,
-79,
-31,
0,
-4,
8,
-23,
-2,
22,
-33,
-2,
10,
-8,
-10,
1,
-29,
22,
9,
-9,
14,
-20,
-23,
8,
15,
0,
-13,
0,
10,
3,
10,
5,
-59,
7,
-73,
-18,
23,
-18,
-8,
-15,
1,
-21,
-22,
2,
-8,
-12,
-30,
-3,
-4,
19,
15,
-6,
16,
-6,
-44,
-7,
24,
25,
2,
-9,
-17,
-24,
28,
0,
-67,
6,
-35,
-29,
3,
6,
-13,
-11,
-17,
-10,
-10,
18,
-3,
3,
-17,
-9,
-5,
31,
-9,
6,
12,
11,
-6,
-10,
-5,
9,
22,
9,
1,
0,
6,
-8,
-17,
-5,
-51,
-11,
9,
6,
-13,
3,
-2,
-35,
-27,
20,
-20,
3,
-45,
-5,
-8,
15,
-10,
0,
-1,
4,
-3,
-51,
-6,
-22,
4,
11,
-10,
0,
-17,
0,
29,
-4,
-39,
-2,
13,
37,
-56,
3,
-18,
-3,
-3,
-22,
-4,
22,
-52,
14,
12,
-9,
-9,
5,
23,
-5,
-10,
-18,
26,
19,
24,
-26,
-52,
-17,
5,
-13,
18,
-12,
-17,
6,
-1,
-3,
-59,
-23,
-9,
20,
-9,
1,
-10,
20,
-14,
-23,
-22,
-6,
20,
-27,
-11,
-17,
-6,
-2,
32,
-8,
-21,
11,
-4,
-1,
45,
-15,
-17,
-15,
8,
-6,
-3,
28,
-44,
11,
-2,
9,
-20,
27,
1,
23,
-6,
-35,
11,
-19,
12,
-15,
-9,
7,
-4,
17,
-7,
-35,
8,
-14,
-23,
-9,
25,
-31,
0,
22,
9,
17,
-3,
32,
-20,
-16,
-21,
19,
-19,
26,
-35,
-21,
-14,
-48,
7,
0,
28,
-45,
12,
19,
18,
22,
-1,
-31,
-3,
0,
-8,
-30,
4,
-4,
-24,
-2,
15,
24,
-8,
12,
-5,
-19,
-14,
18,
3,
5,
-22,
-22,
-21,
-35,
5,
-49,
8,
-50,
-2,
17,
-5,
-3,
12,
-45,
-21,
-16,
-18,
-43,
23,
-9,
-5,
-26,
2,
-15,
-27,
-3,
-2,
5,
11,
24,
-25,
28,
-26,
0,
13,
11,
-2,
-36,
-19,
-18,
-13,
-15,
19,
17,
13,
-5,
-12,
5,
-19,
-34,
2,
-33,
-29,
9,
3,
0,
2,
27,
26,
-23,
-12,
27,
7,
-41,
-7,
24,
17,
41,
-8,
8,
-33,
4,
4,
10,
10,
14,
0,
-29,
-28,
-8,
-10,
-5,
-6,
-5,
-2,
8,
41,
13,
22,
-1,
1,
-23,
-23,
22,
11,
-53,
-28,
1,
-10,
7,
-7,
-14,
-16,
9,
-7,
-22,
7,
-1,
-8,
-7,
-40,
1,
-15,
-11,
16,
-27,
19,
1,
0,
-10,
6,
0,
46,
5,
-27,
-2,
15,
-38,
-20,
-3,
19,
6,
-9,
24,
-21,
-3,
-13,
-20,
0,
0,
-45,
-37,
-21,
-8,
0,
-24,
-18,
-30,
-18,
9,
16,
4,
10,
18,
22,
-26,
-52,
-17,
10,
-2,
-21,
4,
-30,
12,
3,
-2,
-44,
6,
6,
-21,
14,
2,
-96,
7,
-9,
-8,
0,
-19,
-63,
10,
17,
0,
-4,
-23,
9,
2,
24,
-15,
-32,
-8,
-13,
1,
-2,
-14,
-26,
-4,
25,
1,
-69,
5,
-7,
6,
-6,
5,
-62,
-6,
17,
-25,
3,
-25,
-93,
9,
-3,
-3,
-19,
-23,
0,
12,
11,
-19,
-48,
15,
-19,
10,
-28,
18,
-29,
-2,
23,
-9,
-27,
7,
2,
11,
0,
14,
4,
-18,
-11,
-35,
-10,
-11,
-21,
-11,
30,
-10,
3,
-63,
15,
-2,
19,
-54,
-20,
26,
-31,
31,
-11,
4,
-29,
-7,
8,
31,
-39,
2,
2,
13,
-12,
-16,
-3,
-12,
-29,
-40,
-9,
-15,
0,
-17,
30,
-71,
-17,
-53,
23,
8,
-8,
-31,
3,
-4,
-36,
-3,
-6,
4,
-44,
9,
2,
23,
-15,
22,
9,
15,
-11,
-7,
-8,
18,
0,
-22,
7,
-6,
-16,
4,
9,
-94,
-19,
-77,
-7,
12,
-21,
0,
22,
-4,
-43,
-8,
13,
-9,
-48,
-11,
3,
-3,
-14,
1,
36,
6,
16,
1,
0,
-4,
-15,
5,
10,
-49,
-8,
-8,
26,
6,
-4,
-28,
-25,
1,
-6,
0,
16,
7,
2,
-4,
7,
24,
0,
10,
-9,
-21,
2,
-23,
43,
-15,
5,
-10,
-14,
12,
5,
-4,
10,
-7,
-19,
-5,
-10,
-1,
11,
-47,
-4,
14,
-50,
-5,
2,
-17,
-26,
2,
7,
13,
-29,
13,
-4,
-8,
1,
-9,
36,
-22,
4,
23,
-13,
27,
-17,
7,
22,
-6,
18,
14,
-3,
-12,
-44,
-38,
7,
15,
-47,
-2,
-13,
6,
6,
15,
4,
9,
-63,
-13,
-4,
17,
5,
4,
42,
-30,
-9,
14,
16,
21,
-19,
2,
11,
-54,
11,
-13,
-69,
16,
-69,
-20,
19,
35,
-49,
-8,
-19,
-7,
-24,
13,
-4,
6,
-40,
-7,
12,
11,
-15,
1,
46,
-13,
-32,
7,
34,
23,
-22,
23,
12,
-28,
15,
-12,
-32,
-12,
-35,
-18,
24,
44,
-43,
-1,
-43,
-28,
0,
18,
-3,
-4,
-30,
20,
9,
35,
-10,
-9,
52,
14,
-19,
-34,
-17,
-4,
4,
-17,
4,
5,
21,
-7,
10,
4,
-56,
12,
5,
-9,
0,
-29,
-21,
-24,
-8,
-16,
-10,
12,
-46,
-8,
-6,
0,
-47,
7,
20,
12,
-25,
-37,
7,
-10,
26,
-42,
13,
-31,
-12,
-8,
2,
1,
-25,
0,
27,
33,
-45,
-17,
-2,
-29,
-14,
-32,
-11,
3,
-26,
-17,
26,
-58,
0,
-2,
-27,
17,
10,
-40,
-20,
29,
36,
-15,
-18,
-10,
-17,
-2,
3,
-22,
-24,
-11,
-8,
-23,
-58,
-17,
0,
25,
-19,
25,
2,
-6,
-47,
-4,
-26,
-10,
23,
-29,
-12,
3,
-38,
3,
16,
-25,
-5,
-13,
13,
-36,
20,
-4,
-6,
-45,
18,
-3,
-17,
-14,
-53,
10,
9,
0,
-16,
22,
0,
-12,
-10,
-43,
-4,
17,
21,
-18,
12,
-3,
-4,
4,
-11,
0,
-18,
-12,
-7,
-30,
14,
-2,
-28,
3,
13,
-6,
-24,
-12,
-33,
10,
-18,
33,
-14,
20,
-17,
0,
-6,
-79,
16,
-10,
5,
-32,
-19,
-3,
10,
-5,
-9,
-3,
-26,
12,
-21,
-14,
21,
-1,
-18,
-20,
25,
24,
2,
9,
-21,
-11,
-10,
33,
-7,
15,
-12,
-21,
-17,
-50,
7,
-17,
41,
-50,
7,
24,
11,
-7,
0,
9,
4,
4,
-15,
9,
-9,
-20,
-2,
-21,
1,
-22,
-18,
11,
7,
-17,
14,
24,
1,
14,
-29,
-17,
-7,
-50,
-1,
-28,
10,
16,
5,
9,
5,
12,
14,
-20,
-1,
-4,
-2,
13,
6,
7,
-12,
-30,
21,
5,
0,
-2,
7,
2,
9,
8,
-18,
10,
-2,
14,
2,
-49,
21,
4,
-7,
9,
11,
-1,
-1,
17,
10,
-12,
-25,
-3,
-11,
-7,
6,
-12,
12,
9,
25,
0,
8,
26,
36,
-22,
-21,
29,
17,
-74,
-20,
4,
1,
-39,
-8,
0,
-6,
24,
0,
0,
-8,
-7,
30,
-4,
-36,
-8,
5,
-26,
-19,
-29,
-32,
5,
0,
-20,
27,
17,
42,
5,
-1,
-10,
-2,
-12,
-42,
14,
-3,
-48,
-23,
0,
-41,
34,
-21,
4,
4,
-1,
-55,
-19,
-14,
-32,
-9,
7,
-81,
6,
13,
-1,
-6,
-4,
3,
-5,
29,
-13,
-20,
4,
23,
-14,
-11,
-5,
-20,
-51,
-17,
-12,
-49,
20,
-19,
7,
-6,
0,
-104,
-4,
-32,
2,
-27,
-21,
-57,
7,
12,
4,
-5,
0,
13,
36,
14,
-21,
-6,
13,
-4,
2,
-21,
5,
-15,
-42,
14,
5,
-43,
13,
-18,
0,
-20,
-10,
-36,
-7,
-5,
-30,
-7,
0,
-52,
-15,
24,
-26,
-19,
10,
-12,
-2,
-8,
3,
8,
18,
3,
-11,
-14,
-22,
-37,
-46,
-9,
2,
-30,
16,
6,
-10,
-6,
0,
10,
-15,
23,
-28,
20,
-31,
-51,
2,
36,
-64,
-23,
-17,
10,
5,
-26,
-32,
-11,
35,
-42,
-1,
-11,
10,
-26,
-4,
8,
-7,
-46,
-12,
-21,
-17,
13,
-3,
-13,
-2,
4,
-28,
19,
-40,
-30,
-16,
5,
-77,
-6,
-37,
-19,
17,
-25,
-21,
-5,
11,
-45,
-7,
3,
1,
-22,
-10,
-2,
-7,
-1,
-6,
7,
-7,
2,
-4,
-13,
0,
-16,
-17,
0,
-60,
-18,
-18,
13,
-37,
-11,
-53,
-5,
7,
-8,
-19,
12,
10,
-1,
-21,
46,
-16,
-10,
-9,
-19,
-56,
-17,
-24,
6,
-10,
-13,
17,
-3,
24,
1,
10,
26,
-75,
3,
-10,
23,
18,
28,
-45,
0,
13,
-23,
-12,
29,
5,
7,
-15,
55,
-14,
-11,
-38,
0,
-79,
-11,
14,
22,
-35,
-3,
12,
-5,
-16,
4,
5,
27,
-58,
9,
-24,
0,
0,
18,
-29,
0,
16,
-69,
4,
3,
17,
-6,
-10,
0,
-17,
-12,
-7,
9,
-87,
-14,
-2,
-6,
-2,
-9,
-5,
5,
9,
-12,
17,
-6,
-93,
6,
11,
-7,
-24,
-19,
-38,
1,
32,
-79,
21,
6,
9,
-1,
-9,
-10,
-7,
-35,
-1,
-5,
-123,
-2,
-11,
27,
-21,
3,
36,
-2,
8,
-19,
9,
1,
-70,
10,
0,
-41,
4,
-21,
-18,
10,
30,
-84,
0,
-4,
7,
-1,
-5,
19,
20,
-62,
-12,
27,
-130,
13,
8,
14,
-1,
-1,
13,
-5,
41,
-1,
16,
-14,
-44,
30,
-8,
-36,
7,
-37,
-31,
-4,
45,
-60,
-32,
-8,
-8,
-9,
-1,
1,
9,
-42,
4,
36,
-88,
4,
7,
7,
-22,
-34,
2,
7,
14,
-1,
-18,
7,
-26,
11,
-6,
-25,
24,
-20,
14,
0,
12,
-39,
-13,
-16,
-18,
-12,
28,
-4,
0,
-30,
-10,
18,
-51,
-49,
13,
-35,
16,
5,
-33,
0,
-2,
33,
-26,
-22,
-28,
-4,
-2,
-51,
8,
-7,
-34,
25,
48,
-27,
-28,
-7,
-6,
0,
-14,
21,
-3,
-45,
37,
26,
-105,
-1,
9,
-66,
17,
18,
-22,
-43,
19,
65,
-42,
14,
-13,
-3,
-18,
-15,
-27,
-49,
9,
-7,
-25,
-38,
-13,
-4,
16,
-8,
40,
-14,
-9,
-33,
-23,
0,
-18,
3,
-20,
24,
8,
-33,
5,
1,
-2,
-31,
-26,
-13,
-41,
17,
-7,
-6,
-32,
-31,
-13,
0,
-11,
-5,
-21,
-16,
43,
5,
-7,
9,
-43,
-9,
-25,
2,
-8,
5,
-24,
-12,
1,
-19,
14,
9,
-24,
-1,
-24,
-16,
-4,
9,
12,
5,
-33,
-13,
-1,
-31,
-14,
-13,
-23,
-14,
3,
4,
30,
23,
6,
-12,
-80,
15,
-16,
23,
-31,
0,
21,
-16,
-8,
0,
-26,
5,
-18,
5,
1,
3,
-25,
-7,
-36,
26,
-4,
-14,
-17,
0,
-21,
-11,
20,
12,
24,
25,
1,
-11,
-61,
2,
-7,
20,
-57,
11,
-11,
-5,
12,
17,
9,
-27,
-7,
-6,
-14,
0,
-17,
12,
-15,
24,
4,
-9,
-6,
-6,
-17,
-5,
7,
22,
18,
3,
10,
-36,
-63,
10,
-18,
-2,
-56,
4,
-4,
-16,
-5,
20,
-27,
-13,
6,
-20,
-19,
23,
-16,
1,
-38,
9,
-10,
0,
13,
-4,
2,
-9,
-9,
-7,
-4,
8,
32,
-44,
-82,
27,
-4,
5,
-7,
8,
-11,
1,
20,
0,
9,
7,
-17,
-23,
-3,
31,
-14,
-10,
5,
32,
3,
1,
-36,
28,
-21,
-6,
23,
2,
-36,
-26,
5,
-36,
-80,
30,
17,
-39,
7,
26,
-3,
-46,
1,
31,
-2,
-38,
-6,
-42,
-6,
-22,
-14,
-5,
-12,
11,
-12,
-3,
-9,
24,
-42,
-5,
6,
22,
-36,
-44,
9,
-49,
-72,
25,
-15,
-36,
0,
8,
-10,
-34,
-2,
-67,
2,
-23,
-1,
-46,
-1,
-56,
-12,
-18,
-25,
-13,
12,
15,
15,
7,
-5,
-32,
6,
21,
7,
-47,
-3,
-24,
-105,
0,
-8,
-52,
5,
0,
0,
-38,
-11,
-80,
7,
1,
-21,
-40,
-1,
-80,
-2,
10,
-33,
-18,
4,
0,
21,
31,
-11,
-1,
19,
-16,
-5,
-14,
14,
-39,
-76,
-6,
-1,
0,
9,
-6,
4,
-34,
-1,
-36,
7,
3,
-11,
-28,
13,
-45,
-10,
11,
-51,
-22,
1,
15,
12,
-5,
-15,
-5,
5,
-25,
0,
-55,
3,
-28,
-70,
15,
-11,
-31,
22,
-25,
0,
-37,
-12,
23,
-5,
27,
3,
-13,
-14,
-26,
-2,
-5,
-53,
-12,
-29,
7,
41,
-2,
-28,
9,
2,
-21,
-3,
-28,
-2,
-44,
-57,
10,
2,
6,
25,
-20,
7,
-7,
3,
0,
19,
10,
-11,
7,
-62,
0,
-22,
-6,
-31,
-13,
-28,
-14,
0,
-33,
-12,
2,
6,
-23,
-25,
-27,
4,
-19,
-63,
8,
-6,
-7,
15,
-77,
17,
-25,
-8,
-6,
-7,
17,
-25,
10,
-52,
-19,
-7,
-9,
-7,
4,
-64,
5,
18,
-34,
0,
14,
-9,
-22,
7,
0,
-34,
-28,
-60,
12,
-22,
-12,
-9,
-84,
-24,
-15,
-3,
2,
4,
-3,
13,
18,
-42,
10,
-31,
6,
-21,
6,
-40,
3,
21,
-42,
7,
26,
8,
-27,
1,
-5,
-62,
3,
-35,
-1,
-11,
15,
-3,
-98,
-1,
-12,
3,
-12,
-32,
19,
10,
15,
-55,
25,
-43,
-19,
-6,
30,
-43,
21,
26,
-49,
20,
12,
2,
-20,
-2,
-14,
1,
-17,
-49,
-21,
-40,
-11,
-16,
-94,
-18,
-7,
10,
12,
3,
-32,
24,
5,
-52,
-2,
-3,
-4,
-28,
10,
-28,
15,
35,
-66,
7,
2,
19,
-34,
-10,
0,
19,
0,
-31,
25,
-53,
15,
-11,
-104,
-19,
-39,
4,
0,
0,
-23,
-3,
2,
-33,
-28,
2,
-62,
11,
4,
2,
8,
45,
-58,
21,
-7,
9,
9,
0,
-13,
18,
-33,
10,
-2,
-82,
-15,
2,
-104,
-6,
9,
3,
-6,
-2,
-50,
18,
-24,
-55,
3,
-4,
-73,
-19,
-47,
3,
-6,
33,
-63,
-14,
-29,
3,
11,
-13,
25,
18,
-39,
31,
6,
-83,
-13,
5,
-85,
9,
-38,
-7,
-17,
-21,
0,
23,
5,
-54,
2,
-2,
-75,
11,
-45,
-25,
9,
15,
-57,
-20,
2,
-20,
-8,
-6,
-14,
14,
-40,
7,
-9,
-124,
-18,
7,
-64,
-10,
-6,
-33,
-6,
-1,
-5,
-22,
-3,
-16,
-19,
-1,
-58,
26,
-26,
-34,
16,
24,
-34,
-41,
-27,
-24,
-20,
-29,
32,
5,
-52,
32,
22,
-151,
-5,
2,
-84,
-17,
-8,
-42,
-27,
-23,
36,
-27,
38,
-15,
-28,
-12,
-53,
-22,
-44,
11,
-23,
-15,
22,
-20,
-16,
26,
-9,
-2,
4,
-16,
-41,
22,
20,
11,
36,
-13,
-8,
-25,
-59,
-28,
-14,
-7,
-1,
9,
-2,
-17,
29,
0,
10,
-5,
-67,
-12,
-30,
-29,
18,
-3,
-15,
18,
15,
25,
14,
-40,
-52,
-30,
8,
2,
16,
-46,
1,
13,
-70,
-7,
12,
-9,
-25,
-21,
-22,
-25,
2,
-18,
-2,
-21,
-47,
-15,
-16,
-2,
-5,
-5,
-12,
-4,
-15,
-1,
-12,
-31,
-28,
-9,
25,
7,
33,
-34,
7,
10,
-61,
12,
4,
-28,
1,
11,
-10,
-21,
5,
-39,
8,
-19,
-38,
15,
-36,
-17,
-7,
3,
-8,
13,
8,
15,
36,
4,
-51,
-89,
18,
-13,
9,
-57,
0,
-7,
-77,
0,
-12,
8,
11,
3,
13,
-13,
19,
-22,
-31,
-17,
-25,
10,
-9,
0,
-10,
-20,
-6,
4,
-17,
28,
13,
-21,
-42,
-54,
8,
9,
-8,
-63,
10,
15,
-68,
4,
37,
-3,
8,
2,
23,
17,
27,
-46,
-10,
-10,
-16,
-18,
0,
-34,
-11,
-2,
-13,
-26,
14,
7,
2,
6,
-44,
-26,
24,
6,
-32,
-49,
9,
15,
-37,
25,
31,
22,
7,
3,
-41,
-17,
37,
-9,
2,
-25,
2,
-17,
0,
-36,
6,
-20,
-14,
-9,
3,
-24,
-15,
14,
-73,
-26,
18,
3,
-42,
16,
16,
17,
-65,
4,
1,
-27,
22,
10,
-60,
-3,
-47,
-12,
-16,
-29,
19,
-16,
13,
-22,
27,
-11,
-21,
14,
15,
-15,
-14,
20,
-51,
-34,
6,
-24,
-45,
36,
-2,
-19,
-73,
5,
-57,
-25,
-37,
-4,
-45,
12,
-62,
-3,
-4,
-35,
-19,
-9,
-2,
-9,
7,
6,
-10,
24,
-4,
-5,
-27,
25,
-31,
-11,
20,
-7,
-35,
16,
16,
17,
-30,
6,
-51,
5,
3,
-20,
-84,
8,
-41,
-12,
17,
-77,
-11,
0,
-15,
-4,
2,
-12,
9,
8,
-16,
0,
-56,
1,
-31,
-56,
17,
2,
-13,
23,
10,
15,
-39,
-21,
-20,
-24,
5,
-29,
-86,
-10,
-19,
8,
-16,
-57,
-28,
15,
7,
0,
13,
-26,
-9,
8,
0,
-7,
-72,
-9,
-12,
-40,
5,
-14,
0,
-7,
-7,
0,
-35,
-6,
-1,
-5,
2,
10,
-84,
-35,
-25,
4,
-11,
14,
-7,
22,
-15,
10,
-13,
-24,
-20,
2,
-10,
-2,
-80,
-31,
-13,
-35,
-2,
14,
-3,
-7,
-13,
-11,
-27,
-10,
-1,
-30,
-14,
-6,
-84,
-43,
-3,
0,
1,
-34,
16,
11,
-11,
3,
-3,
-39,
0,
9,
-27,
11,
-130,
-83,
2,
-23,
-1,
15,
-16,
-10,
-78,
-29,
-16,
-11,
2,
-34,
10,
-17,
-59,
-15,
-1,
16,
-18,
-23,
-13,
-22,
-17,
-15,
-28,
-3,
11,
-11,
-23,
-13,
-108,
-107,
-3,
-38,
-9,
23,
1,
-24,
-77,
4,
-14,
-1,
-5,
-30,
-12,
-18,
-25,
-27,
2,
-72,
-22,
12,
4,
-62,
26,
-16,
-31,
12,
15,
6,
-21,
5,
-81,
-46,
-6,
-45,
-43,
47,
-17,
-12,
-87,
-13,
-11,
5,
-7,
-45,
-18,
0,
-2,
-29,
-5,
-17,
10,
-9,
3,
-27,
4,
-19,
-6,
24,
8,
-7,
-3,
-6,
-3,
-15,
16,
-44,
10,
44,
-26,
-18,
-77,
-22,
-22,
9,
-13,
-91,
-25,
8,
-14,
-19,
1,
3,
-42,
3,
7,
-30,
-16,
-26,
5,
8,
3,
6,
-3,
8,
24,
-20,
-6,
-18,
7,
36,
6,
-29,
-74,
-11,
-20,
-5,
-10,
-136,
-15,
6,
-4,
-25,
-2,
0,
-66,
-6,
-7,
-19,
-16,
3,
-41,
-10,
10,
-38,
-16,
-9,
8,
-9,
-5,
-5,
44,
21,
-38,
-13,
-96,
15,
-8,
2,
-27,
-79,
-58,
0,
12,
-3,
-27,
32,
-90,
15,
-51,
-6,
-10,
18,
-61,
15,
-21,
-12,
7,
9,
21,
-1,
-13,
-7,
21,
25,
-22,
6,
-78,
0,
-15,
-36,
-20,
-94,
-24,
4,
7,
-44,
-5,
7,
-41,
-16,
-47,
-31,
-13,
3,
-39,
-21,
-23,
-33,
0,
14,
16,
3,
-52,
15,
21,
-22,
-12,
-5,
-52,
-10,
-22,
-20,
-29,
-57,
-9,
-22,
-1,
-10,
2,
2,
-37,
15,
6,
-37,
2,
21,
-39,
-40,
-4,
-19,
-21,
-37,
-15,
-17,
-66,
4,
-3,
-98,
19,
17,
-88,
15,
4,
-36,
-38,
-79,
11,
-7,
12,
-19,
-10,
0,
-82,
-6,
-63,
11,
-7,
-9,
19,
-17,
1,
-17,
-20,
8,
-1,
-31,
-38,
39,
18,
-24,
13,
-34,
4,
-9,
-103,
-12,
-7,
-21,
-15,
7,
-23,
-18,
6,
28,
-53,
-6,
-61,
-7,
-35,
-17,
-20,
-4,
-4,
-19,
5,
8,
-9,
-24,
-33,
-11,
8,
-41,
13,
-3,
10,
0,
-107,
-10,
-13,
0,
-1,
-2,
-30,
-16,
-14,
10,
-17,
1,
-106,
0,
-8,
2,
-1,
-1,
-1,
0,
-4,
7,
-14,
-40,
-40,
4,
18,
-23,
32,
-5,
-1,
-16,
-125,
14,
4,
0,
-16,
-24,
-15,
2,
17,
-16,
0,
-33,
-107,
-15,
2,
15,
15,
-7,
-22,
4,
13,
27,
33,
-30,
-37,
19,
36,
-20,
52,
-32,
-9,
11,
-98,
-15,
-2,
3,
-10,
2,
13,
21,
22,
-1,
0,
-33,
-113,
2,
7,
-36,
-8,
-22,
-9,
-26,
-9,
22,
-4,
7,
-47,
-8,
2,
-11,
-4,
-49,
18,
-13,
-57,
9,
29,
-9,
-19,
-19,
28,
0,
39,
-17,
0,
-21,
-117,
-3,
-8,
-53,
-8,
-1,
8,
9,
-6,
11,
-13,
7,
-8,
-10,
-9,
-4,
-11,
-32,
-17,
-16,
-75,
5,
33,
0,
-24,
-18,
2,
37,
-7,
-2,
-36,
2,
-114,
17,
12,
-49,
-14,
0,
-17,
-4,
7,
-48,
8,
-3,
-7,
23,
-34,
11,
-60,
-2,
15,
-29,
-39,
4,
1,
-3,
0,
-5,
-14,
19,
-44,
24,
-17,
-33,
-65,
2,
-7,
-2,
-7,
-14,
-16,
-8,
-8,
-18,
-17,
-29,
-7,
-8,
26,
17,
-25,
27,
27,
20,
-47,
10,
-42,
-6,
-13,
-10,
-27,
4,
-19,
3,
-3,
-32,
-57,
11,
13,
-40,
-23,
-5,
3,
-15,
10,
-15,
0,
-25,
-14,
20,
24,
11,
-19,
4,
11,
-18,
-54,
-12,
-25,
6,
-11,
-27,
-60,
-23,
-23,
15,
-14,
-43,
-35,
-2,
-6,
-14,
-10,
8,
8,
-23,
9,
1,
13,
-46,
-40,
41,
20,
7,
4,
14,
15,
16,
-45,
-3,
-9,
-15,
5,
-25,
-86,
-14,
-3,
25,
-9,
-14,
-3,
-14,
-22,
19,
-13,
-30,
-26,
-4,
-7,
23,
-15,
-99,
-28,
3,
-7,
0,
-7,
-2,
-5,
0,
-16,
7,
-6,
-7,
-12,
-20,
-125,
-12,
4,
4,
-14,
12,
4,
-2,
-4,
-9,
1,
-36,
-20,
-14,
-33,
-21,
-30,
-144,
-15,
0,
5,
22,
13,
-13,
10,
-18,
-26,
-17,
-14,
-9,
-10,
-23,
-105,
19,
-10,
21,
-16,
-38,
-8,
-1,
13,
18,
-6,
-15,
8,
-31,
-19,
-26,
-45,
-113,
-3,
20,
1,
4,
14,
-32,
36,
-3,
-27,
-13,
-6,
8,
-8,
-13,
-117,
-21,
-2,
12,
-13,
2,
-4,
18,
5,
-39,
-7,
4,
-18,
-28,
-18,
-5,
-38,
-26,
-30,
2,
-26,
-6,
-8,
-19,
20,
-9,
-6,
-4,
7,
-10,
-26,
1,
-95,
-17,
-35,
-24,
-4,
7,
1,
-15,
6,
-37,
-3,
15,
8,
-10,
0,
-13,
-41,
-14,
-24,
-7,
-31,
2,
-39,
3,
30,
12,
-23,
-8,
-2,
-19,
8,
28,
-82,
-4,
-15,
19,
-46,
-4,
4,
-36,
-22,
-88,
4,
2,
-6,
-25,
-1,
1,
-29,
14,
-2,
-9,
-12,
-2,
-13,
-24,
-7,
-22,
-34,
2,
7,
-47,
-27,
-24,
-32,
0,
26,
27,
-71,
-21,
25,
-4,
3,
-29,
-21,
2,
16,
-60,
-4,
-3,
3,
-5,
-10,
-7,
16,
0,
-14,
-18,
-21,
-24,
-21,
-13,
-14,
-81,
-33,
3,
-3,
-34,
-1,
14,
-61,
4,
2,
-26,
-5,
-2,
-77,
9,
19,
-57,
-2,
1,
-11,
-7,
-2,
-9,
25,
-31,
-6,
-7,
-5,
-25,
-44,
3,
-18,
-92,
-51,
-24,
13,
-6,
-13,
-1,
-58,
11,
-46,
-3,
5,
19,
-100,
1,
-14,
-12,
-1,
-30,
-3,
-7,
-20,
-10,
27,
-8,
-25,
-10,
-23,
17,
-27,
-8,
-59,
-107,
-36,
-21,
4,
-38,
-16,
27,
-24,
0,
-8,
-17,
15,
-14,
-58,
-39,
-15,
-43,
1,
-4,
17,
0,
-43,
-10,
5,
43,
-13,
6,
-67,
13,
-6,
-27,
-42,
-92,
-30,
-33,
17,
-29,
-31,
35,
-50,
-15,
0,
-17,
8,
28,
-66,
-19,
-7,
-42,
8,
-3,
-1,
-20,
-28,
12,
27,
-48,
16,
36,
-98,
-18,
1,
-22,
-32,
-89,
-15,
-8,
20,
-35,
-10,
-3,
-84,
-12,
-8,
10,
-26,
-27,
15,
12,
3,
-33,
0,
14,
-3,
-61,
-32,
62,
-8,
5,
34,
-3,
31,
-8,
-68,
-11,
22,
-24,
-16,
7,
-31,
-28,
-1,
35,
-28,
13,
-33,
-2,
-23,
20,
-8,
-17,
3,
-7,
-7,
29,
-4,
-41,
-15,
14,
-25,
-4,
-4,
-16,
27,
-32,
-65,
-7,
9,
-24,
-6,
5,
-23,
2,
1,
0,
-35,
-7,
-42,
-9,
-17,
40,
13,
-26,
-3,
-28,
16,
35,
-8,
-19,
-7,
39,
0,
-16,
39,
-25,
-11,
-1,
-36,
-11,
31,
21,
-6,
-23,
-18,
2,
-2,
-8,
-20,
-14,
-89,
-10,
-43,
-13,
8,
18,
-26,
-27,
6,
28,
8,
-34,
2,
31,
-29,
10,
34,
-33,
6,
-20,
-32,
11,
18,
2,
-41,
-9,
45,
21,
-9,
-17,
-26,
-17,
-63,
7,
-8,
-75,
-3,
6,
-3,
-43,
-10,
37,
-2,
-55,
2,
4,
-22,
-11,
10,
-56,
19,
-28,
-13,
0,
29,
18,
-13,
-3,
7,
12,
28,
-23,
-61,
-50,
-75,
1,
-6,
-34,
-39,
-7,
3,
-27,
16,
16,
5,
-75,
-9,
13,
-37,
-12,
-8,
-24,
9,
-11,
-21,
9,
35,
0,
-25,
7,
-5,
14,
1,
6,
-24,
-60,
-88,
-6,
3,
-32,
-23,
-8,
-31,
-44,
-11,
-7,
-6,
-68,
7,
33,
-18,
4,
-4,
-11,
13,
-3,
5,
16,
-9,
-7,
1,
11,
9,
20,
-2,
2,
-21,
-34,
-74,
14,
0,
-21,
-23,
10,
1,
-29,
0,
-7,
14,
-113,
14,
17,
-1,
13,
-24,
-37,
9,
-13,
-11,
-17,
-34,
20,
16,
-1,
-28,
15,
-17,
18,
-17,
-39,
-35,
1,
-13,
-5,
-26,
9,
-13,
-21,
7,
3,
0,
-129,
0,
36,
2,
18,
-2,
-4,
11,
-20,
-8,
-6,
12,
-12,
7,
7,
4,
-6,
-27,
13,
-23,
-11,
-13,
-26,
-23,
-13,
-26,
-12,
13,
-9,
5,
1,
3,
-142,
15,
10,
18,
-1,
-11,
-35,
4,
17,
-17,
-14,
-15,
-3,
-13,
6,
-22,
0,
-7,
2,
-28,
-34,
-9,
1,
-17,
12,
-4,
3,
2,
-40,
-19,
9,
7,
-88,
-5,
33,
-12,
9,
-14,
-43,
13,
-7,
-14,
12,
-4,
5,
20,
6,
-39,
-1,
-32,
18,
-4,
-35,
-7,
-8,
5,
-5,
-7,
-42,
8,
-26,
-15,
22,
7,
-41,
-36,
1,
-4,
31,
0,
-61,
8,
-18,
9,
25,
-6,
-4,
-5,
-36,
-22,
-6,
14,
17,
-7,
-22,
19,
13,
-12,
-1,
-5,
-3,
2,
-28,
-3,
-16,
4,
1,
10,
19,
-39,
12,
-9,
-23,
-5,
8,
-6,
14,
-16,
5,
-13,
-1,
-69,
-3,
-13,
5,
-4,
-11,
12,
9,
15,
-22,
-14,
0,
-32,
-10,
-5,
4,
4,
7,
-12,
8,
-114,
-10,
-28,
-13,
-15,
-18,
-2,
-25,
-17,
13,
-25,
-17,
-55,
-10,
-9,
-24,
-11,
-8,
-2,
-26,
16,
-58,
14,
28,
18,
-39,
-4,
-14,
-27,
2,
-11,
29,
-39,
9,
6,
5,
5,
-1,
-21,
-10,
-2,
12,
-2,
33,
-38,
11,
-21,
16,
-55,
-17,
19,
-16,
10,
-89,
17,
-13,
-10,
-52,
-3,
-21,
2,
-8,
-3,
-5,
-2,
15,
-3,
13,
-2,
0,
-23,
-14,
2,
18,
-18,
8,
-44,
33,
-7,
33,
-64,
-9,
-6,
-21,
23,
-35,
6,
26,
-3,
-39,
-3,
3,
-8,
11,
15,
-11,
9,
0,
7,
-26,
-9,
3,
-49,
-3,
17,
-2,
-45,
7,
0,
-20,
17,
5,
-66,
-31,
-19,
-21,
24,
-15,
-24,
9,
-12,
-57,
0,
-32,
2,
3,
25,
30,
-1,
-25,
-2,
-14,
3,
-10,
-19,
-5,
-12,
0,
-30,
-19,
0,
1,
-1,
17,
-29,
-34,
-65,
-14,
1,
-7,
-67,
-16,
-1,
-25,
-9,
-18,
-3,
5,
-4,
-6,
12,
-3,
1,
-3,
12,
12,
0,
-32,
-50,
-66,
-39,
-7,
20,
-47,
4,
20,
9,
-4,
-32,
-29,
-21,
-10,
-71,
-4,
-7,
-19,
2,
-19,
5,
-15,
27,
-14,
0,
6,
-8,
0,
-27,
-8,
-15,
-24,
2,
-87,
-13,
-20,
0,
-20,
-20,
19,
-31,
-46,
-40,
-22,
3,
19,
-49,
1,
-21,
-9,
-25,
-20,
17,
-21,
-19,
-6,
2,
-13,
1,
17,
-77,
-15,
-22,
-16,
-7,
-92,
-14,
15,
31,
-57,
-26,
18,
-96,
-28,
14,
-5,
-15,
-4,
-1,
0,
-12,
-40,
15,
42,
-6,
-21,
-35,
55,
-21,
-29,
43,
-41,
10,
-7,
-31,
4,
0,
-12,
12,
0,
-3,
-17,
23,
18,
-49,
-28,
-13,
25,
-15,
-11,
43,
-1,
0,
-41,
6,
-2,
-31,
-24,
0,
21,
-14,
-37,
18,
-21,
2,
-12,
-1,
-6,
-6,
-10,
-1,
-9,
-46,
13,
2,
11,
-105,
-31,
-11,
-9,
-39,
-13,
-1,
17,
-15,
-32,
27,
6,
-22,
-64,
47,
17,
-21,
-6,
2,
-25,
-15,
-25,
28,
-1,
15,
-6,
-4,
9,
-4,
0,
-4,
28,
-65,
-28,
17,
9,
-17,
-70,
-19,
10,
13,
-9,
-2,
4,
8,
-64,
15,
30,
-29,
-7,
46,
-36,
-16,
-17,
21,
-11,
16,
0,
-36,
-17,
21,
10,
-12,
-6,
-77,
-14,
-8,
-11,
-19,
-57,
-11,
6,
-12,
-10,
-23,
33,
-10,
-77,
33,
-1,
-23,
-23,
26,
-46,
18,
-15,
35,
23,
14,
24,
-3,
13,
28,
26,
29,
18,
-44,
-41,
1,
-13,
-28,
-9,
-14,
-28,
-20,
-8,
-32,
-3,
14,
-99,
32,
-8,
5,
-20,
4,
-47,
-6,
-25,
26,
13,
13,
15,
4,
-23,
17,
12,
14,
15,
-52,
-72,
9,
1,
-24,
11,
-14,
-2,
-15,
-30,
-6,
21,
7,
-140,
17,
15,
4,
-24,
-15,
-56,
-4,
-9,
-14,
10,
11,
5,
-9,
-18,
25,
14,
12,
-10,
-30,
-50,
7,
-13,
-39,
-5,
-27,
-6,
-13,
-24,
-2,
-11,
-9,
-95,
20,
11,
7,
10,
11,
-106,
0,
-15,
13,
27,
-24,
-3,
-3,
-14,
2,
-5,
2,
32,
-26,
-33,
-1,
-27,
-27,
7,
-35,
5,
-5,
-11,
-11,
-3,
-13,
-100,
1,
34,
1,
7,
-11,
-107,
9,
14,
-10,
-3,
-5,
-5,
10,
-28,
20,
-27,
17,
-1,
-33,
-17,
-1,
-23,
-40,
-9,
-9,
-29,
19,
9,
-3,
2,
10,
-16,
-13,
14,
-12,
-7,
-19,
-97,
11,
-9,
-11,
8,
-2,
-14,
4,
-34,
35,
-5,
11,
11,
-18,
-43,
-14,
6,
-9,
-6,
-42,
-21,
-19,
-27,
-3,
1,
-8,
12,
14,
1,
-20,
1,
-4,
-73,
-1,
-11,
-32,
0,
-3,
16,
25,
-34,
3,
9,
-20,
9,
-25,
-17,
-7,
-7,
-3,
13,
4,
-13,
-27,
0,
-40,
-1,
0,
6,
-34,
0,
-28,
3,
-28,
-24,
-27,
-13,
-14,
-1,
-1,
2,
-36,
-11,
23,
-12,
8,
-5,
-43,
-26,
5,
11,
-4,
29,
12,
6,
-13,
-8,
-4,
8,
21,
1,
-27,
-6,
-71,
-18,
6,
2,
2,
-8,
-32,
18,
5,
3,
-5,
0,
-14,
-12,
-14,
-21,
2,
-31,
-7,
-3,
5,
-3,
0,
9,
-29,
-16,
-13,
12,
-7,
-5,
22,
14,
-108,
-4,
-9,
37,
-14,
8,
2,
-5,
17,
0,
-26,
-6,
13,
-6,
-31,
6,
-57,
-31,
1,
-9,
-10,
-71,
25,
2,
16,
-23,
-4,
-14,
-23,
-3,
-6,
-2,
-51,
-5,
-4,
12,
4,
6,
-13,
-11,
3,
-5,
-26,
1,
-11,
10,
-16,
5,
-42,
-32,
4,
-13,
5,
-57,
0,
11,
-4,
-38,
-21,
11,
0,
-3,
9,
-5,
-18,
-14,
10,
0,
-17,
-6,
-19,
-4,
40,
-6,
-4,
-16,
-11,
-18,
-14,
0,
-37,
-34,
4,
-21,
23,
-30,
-29,
12,
0,
-30,
-14,
14,
-6,
-17,
-4,
1,
12,
-19,
-3,
3,
8,
-6,
-15,
-30,
13,
-4,
-39,
-4,
-30,
0,
-30,
13,
-39,
-36,
-16,
-31,
-3,
-16,
-55,
-8,
-29,
-42,
1,
-21,
6,
14,
-7,
0,
0,
3,
0,
-13,
1,
-21,
5,
-31,
-20,
18,
-19,
11,
-9,
0,
-22,
28,
11,
-14,
2,
-11,
16,
-35,
-55,
-23,
-23,
-9,
-16,
-28,
-15,
14,
15,
-11,
18,
-8,
8,
-12,
14,
-10,
-21,
-33,
-35,
2,
-28,
-22,
18,
-22,
-29,
30,
-1,
-27,
-43,
-13,
30,
-33,
-65,
-29,
8,
-8,
18,
-13,
-13,
13,
-2,
-11,
3,
13,
11,
-26,
18,
-12,
3,
-27,
-6,
-6,
-16,
-9,
0,
-27,
-11,
32,
-38,
-62,
-47,
-24,
-14,
10,
-56,
4,
-24,
1,
-13,
-10,
20,
9,
-26,
8,
-18,
-6,
29,
-31,
-41,
10,
-9,
-16,
-7,
-104,
19,
-2,
38,
-23,
-10,
7,
-84,
-31,
23,
15,
-9,
5,
9,
-13,
-16,
-50,
9,
12,
-1,
-33,
31,
34,
-38,
13,
36,
-33,
8,
1,
-1,
-12,
19,
-40,
-3,
-3,
-26,
0,
-8,
3,
-34,
-17,
8,
-2,
-17,
-12,
19,
-16,
-20,
-22,
-30,
10,
-30,
-40,
8,
35,
-54,
-2,
10,
-5,
-6,
-27,
49,
-8,
2,
-16,
0,
-24,
-36,
-12,
0,
-5,
-33,
-24,
9,
-12,
-16,
-66,
-24,
10,
3,
-5,
2,
38,
-12,
-45,
39,
6,
-40,
-17,
3,
-25,
-20,
-10,
39,
-13,
2,
-53,
-17,
-29,
5,
-12,
-11,
-1,
-49,
-26,
12,
4,
-22,
-94,
-10,
-6,
-10,
-33,
-12,
15,
12,
-49,
18,
-13,
-25,
-15,
15,
5,
4,
-22,
38,
13,
14,
-9,
-10,
8,
16,
34,
-4,
12,
-43,
-37,
1,
-11,
-29,
-12,
-20,
13,
-3,
-19,
-14,
15,
-10,
-57,
4,
26,
-9,
-35,
20,
-31,
19,
-22,
17,
0,
2,
15,
-9,
-28,
4,
27,
28,
3,
-63,
-20,
23,
0,
-44,
-24,
-25,
-22,
-17,
10,
-19,
10,
-12,
-41,
38,
0,
-4,
-40,
13,
-89,
5,
-18,
0,
3,
2,
-18,
14,
-26,
-3,
26,
16,
-3,
-8,
-38,
8,
-4,
-58,
-30,
-38,
-6,
-29,
3,
-8,
4,
2,
-30,
10,
5,
21,
-43,
-11,
-119,
10,
-2,
15,
6,
-16,
-15,
27,
-3,
15,
4,
18,
-18,
-22,
-28,
17,
-9,
-41,
12,
-17,
-25,
4,
-26,
-8,
2,
0,
8,
17,
-13,
6,
-29,
-24,
-115,
-13,
7,
15,
30,
-9,
-1,
16,
-15,
19,
-20,
-16,
7,
-28,
-6,
11,
-22,
-21,
-13,
-1,
-4,
-21,
5,
-6,
21,
6,
11,
12,
-10,
-11,
14,
-2,
-113,
-2,
-18,
7,
29,
4,
21,
11,
-11,
10,
-11,
8,
10,
-27,
1,
-4,
14,
-13,
-10,
-32,
8,
-20,
-13,
-1,
12,
-23,
28,
14,
-12,
-33,
-20,
-17,
-56,
16,
-5,
2,
15,
-2,
-3,
-11,
-7,
7,
-10,
-5,
0,
-24,
-13,
0,
-8,
-20,
0,
-25,
10,
-36,
-38,
6,
-21,
-2,
12,
-3,
-10,
6,
-21,
-20,
-42,
-8,
-13,
-12,
-6,
10,
4,
12,
-16,
10,
-9,
-27,
19,
-51,
-12,
-19,
0,
0,
1,
-26,
9,
-20,
-10,
-31,
-1,
-11,
9,
8,
12,
-70,
-4,
-42,
0,
-7,
3,
-7,
-12,
-10,
-11,
2,
-4,
-5,
-19,
-26,
0,
-50,
1,
-11,
0,
-10,
15,
-20,
6,
0,
-27,
-21,
-11,
-16,
3,
-9,
-13,
-101,
1,
13,
44,
2,
-3,
-4,
12,
-16,
8,
-23,
-8,
21,
22,
-33,
1,
-30,
-28,
-10,
-13,
10,
-23,
-10,
21,
17,
-21,
-14,
-4,
20,
16,
11,
3,
-70,
9,
-21,
49,
-37,
-25,
-36,
-13,
4,
-3,
-47,
-9,
12,
6,
-29,
17,
-31,
-12,
1,
6,
24,
-108,
0,
2,
15,
-21,
0,
-14,
2,
8,
14,
-14,
-17,
-29,
-22,
22,
10,
-13,
-25,
-19,
8,
-24,
-20,
-10,
-19,
14,
-16,
-20,
-9,
-7,
-12,
-6,
21,
-40,
14,
-9,
-9,
-10,
-35,
-14,
-6,
0,
6,
24,
-9,
-8,
2,
-11,
-6,
-3,
-2,
-16,
27,
-2,
-10,
-6,
-29,
7,
-8,
1,
-21,
-14,
1,
11,
9,
3,
-37,
9,
12,
-22,
-31,
8,
-1,
13,
-17,
0,
5,
0,
8,
-2,
-15,
-22,
10,
-13,
-10,
0,
-34,
3,
-6,
9,
-2,
30,
-14,
-20,
-23,
-12,
8,
-29,
-49,
-38,
-25,
-25,
-1,
-26,
-4,
-18,
26,
12,
15,
7,
-7,
-24,
-22,
-1,
0,
-3,
-9,
13,
-37,
7,
-15,
-9,
-31,
31,
3,
-10,
0,
-27,
9,
-6,
-68,
-34,
17,
16,
-3,
-36,
11,
-4,
9,
-20,
14,
1,
9,
2,
1,
2,
16,
1,
-20,
-16,
-5,
-20,
10,
-31,
-16,
15,
-13,
-31,
-4,
-13,
-10,
6,
-50,
-35,
-4,
-4,
-9,
-27,
6,
-12,
4,
1,
0,
13,
15,
-7,
-14,
4,
30,
-9,
-3,
-26,
-37,
-6,
1,
-36,
-19,
33,
-49,
-41,
-35,
-24,
-25,
26,
-38,
-16,
-18,
7,
-28,
-7,
8,
-9,
-19,
-12,
-1,
-4,
10,
-62,
3,
3,
-7,
-6,
-43,
-80,
15,
22,
16,
-11,
-26,
-33,
0,
-15,
21,
-26,
-1,
8,
-10,
-20,
4,
1,
-3,
1,
-9,
-44,
46,
1,
-27,
10,
46,
-26,
0,
11,
19,
-14,
22,
27,
-19,
-3,
-19,
7,
1,
-8,
13,
-15,
-20,
-17,
20,
-7,
-3,
7,
-4,
4,
-17,
8,
-7,
-36,
13,
-12,
-25,
0,
20,
-26,
-12,
-5,
8,
-52,
30,
-16,
-15,
15,
-14,
19,
-5,
-14,
19,
-22,
3,
-7,
-3,
-37,
-6,
-16,
-16,
-23,
-34,
-3,
-2,
-28,
-6,
-10,
-39,
-28,
39,
-16,
-16,
6,
2,
-32,
15,
-1,
-7,
-10,
-24,
3,
-17,
2,
7,
-19,
2,
-10,
-4,
-56,
-8,
7,
-12,
-1,
-15,
-16,
12,
-23,
3,
1,
-8,
-38,
28,
1,
-7,
-5,
-20,
-12,
-6,
-15,
-34,
-24,
-17,
9,
12,
-36,
14,
-46,
15,
-17,
-4,
-15,
-4,
-20,
10,
-31,
1,
1,
23,
-58,
31,
14,
-1,
-15,
1,
-33,
-25,
-16,
28,
24,
-4,
-31,
-22,
4,
7,
-1,
3,
8,
-29,
-11,
8,
-16,
-13,
7,
-1,
-5,
-6,
5,
-6,
1,
14,
-21,
9,
6,
12,
-35,
2,
-94,
5,
-14,
-10,
-21,
1,
-9,
19,
0,
-6,
28,
24,
-20,
-34,
-6,
-4,
4,
-39,
-8,
-6,
-30,
-15,
-5,
0,
-5,
-11,
-10,
24,
-11,
-24,
-75,
-12,
-122,
-20,
-13,
10,
0,
-12,
-9,
0,
-9,
15,
11,
-14,
-8,
-32,
-15,
8,
-26,
-24,
-6,
-5,
-48,
-5,
-3,
-23,
3,
1,
-7,
21,
0,
-5,
-48,
12,
-38,
0,
-9,
11,
5,
-4,
2,
8,
-4,
5,
-12,
18,
9,
-7,
-22,
-14,
-20,
-10,
2,
-6,
-40,
-1,
-16,
19,
5,
-10,
20,
34,
3,
-12,
-34,
-24,
-30,
-9,
-13,
1,
-13,
-2,
10,
-14,
-28,
-9,
-11,
13,
12,
-48,
-19,
-16,
-5,
-12,
-1,
-4,
-12,
19,
2,
-15,
1,
8,
5,
-10,
2,
-4,
-22,
-41,
1,
-2,
-15,
4,
1,
26,
3,
12,
-10,
3,
-8,
-15,
15,
-31,
-4,
4,
-16,
-7,
-13,
-48,
8,
-10,
-11,
-4,
-8,
-2,
19,
-9,
3,
8,
-18,
-12,
23,
-34,
-16,
-16,
9,
2,
10,
-5,
-35,
2,
-12,
-6,
8,
-36,
-6,
-12,
-7,
-31,
13,
-4,
3,
-13,
-1,
-24,
-7,
24,
4,
-1,
9,
-41,
-17,
-12,
42,
7,
1,
16,
-7,
13,
0,
-18,
8,
10,
5,
3,
9,
-51,
-4,
-11,
-13,
-40,
35,
-16,
-8,
9,
5,
-22,
-1,
-23,
-5,
-12,
-21,
-92,
45,
15,
38,
2,
-10,
-1,
-38,
0,
-11,
-33,
-11,
-37,
-10,
-15,
-1,
-44,
-19,
-23,
-29,
-48,
-89,
-26,
23,
0,
-2,
-22,
-22,
14,
8,
-3,
28,
-26,
6,
-11,
21,
-30,
-27,
-16,
-30,
-10,
3,
-44,
10,
-7,
0,
-12,
-5,
-44,
-2,
0,
-6,
-51,
-72,
-15,
3,
0,
26,
-19,
3,
14,
4,
16,
-10,
15,
-9,
-12,
10,
6,
9,
-17,
-5,
-3,
-7,
-43,
-8,
-14,
8,
0,
8,
-26,
-10,
4,
-2,
-44,
33,
-17,
5,
-12,
-4,
-2,
-22,
-8,
-3,
8,
2,
-13,
21,
-29,
-1,
10,
-20,
5,
-29,
9,
0,
-33,
-2,
7,
2,
-15,
12,
-2,
12,
-22,
7,
-40,
-36,
-68,
-12,
-3,
7,
-18,
-16,
3,
-4,
-5,
17,
-10,
0,
-24,
0,
1,
8,
17,
-14,
6,
3,
-24,
21,
-23,
0,
-25,
32,
10,
-21,
-45,
-7,
-16,
-9,
-67,
-12,
-18,
-23,
0,
-35,
11,
16,
-22,
8,
16,
-4,
0,
1,
-37,
-8,
18,
-14,
-16,
-6,
-20,
5,
-18,
0,
7,
21,
-19,
-9,
-11,
-7,
0,
2,
-2,
-36,
-14,
-29,
0,
-38,
-8,
-1,
6,
0,
1,
-9,
-26,
-24,
1,
-2,
25,
-14,
-16,
22,
-9,
0,
-4,
-33,
-4,
21,
-18,
-19,
4,
-37,
-3,
-25,
-23,
-41,
11,
3,
-1,
-31,
1,
13,
38,
-19,
1,
-11,
-13,
2,
5,
-20,
16,
-30,
-13,
-6,
-10,
-5,
-6,
-36,
-22,
18,
-31,
-40,
-35,
-1,
-16,
15,
-14,
-2,
-19,
-1,
-3,
-19,
7,
-5,
1,
0,
-14,
0,
0,
-17,
-25,
15,
-4,
11,
-20,
-62,
1,
8,
12,
-43,
-27,
-30,
13,
2,
31,
-2,
0,
15,
-54,
-10,
7,
-1,
-9,
-12,
6,
-64,
38,
3,
-12,
9,
34,
-30,
40,
11,
29,
-14,
6,
11,
-12,
-18,
-27,
20,
20,
-17,
19,
-12,
21,
-8,
-11,
-6,
-12,
-13,
-19,
-2,
-38,
6,
4,
-14,
0,
0,
13,
4,
5,
0,
-1,
4,
-6,
-21,
35,
21,
-3,
-16,
-13,
1,
-9,
-34,
3,
-11,
19,
-11,
-17,
0,
28,
-18,
0,
0,
-50,
-5,
17,
-31,
23,
-14,
-5,
12,
18,
-43,
-32,
5,
6,
-34,
14,
18,
-21,
12,
-27,
30,
-10,
-22,
-52,
-40,
29,
19,
0,
-26,
21,
-8,
9,
-16,
-28,
-16,
25,
11,
22,
19,
1,
22,
40,
-8,
-18,
-1,
28,
-58,
12,
-12,
-20,
-5,
-14,
9,
-3,
-17,
-8,
5,
0,
-6,
-4,
-6,
18,
-13,
-14,
3,
-10,
-14,
18,
18,
37,
25,
8,
-25,
35,
-42,
-19,
13,
20,
-49,
0,
-6,
-2,
-24,
6,
34,
28,
19,
-29,
8,
21,
2,
-24,
30,
22,
0,
9,
17,
-7,
-15,
26,
10,
-1,
-3,
22,
-28,
19,
-44,
-33,
-14,
12,
-84,
3,
-31,
13,
-10,
7,
30,
32,
-11,
-32,
0,
-1,
-4,
-23,
-1,
30,
-21,
-29,
-14,
-11,
19,
18,
-9,
15,
10,
-21,
-28,
13,
-27,
-28,
-10,
10,
-57,
-24,
-24,
17,
-9,
-7,
0,
10,
-1,
-22,
2,
11,
0,
21,
-10,
39,
-23,
-12,
-38,
17,
-1,
-3,
5,
41,
18,
-12,
-47,
28,
3,
-35,
13,
11,
-63,
5,
9,
18,
0,
2,
19,
19,
-9,
-32,
-12,
2,
-5,
5,
-8,
17,
26,
-8,
-15,
25,
12,
2,
-2,
0,
-6,
-11,
-55,
-14,
-6,
-23,
-2,
4,
-94,
2,
-14,
2,
0,
0,
-15,
-6,
25,
-35,
-13,
5,
6,
-22,
-23,
5,
-22,
-32,
-15,
-3,
8,
3,
18,
4,
6,
-22,
-62,
-12,
20,
-1,
-7,
-2,
-56,
-4,
-3,
17,
-19,
10,
-38,
8,
-9,
-25,
-12,
-34,
-6,
0,
10,
40,
15,
-11,
-2,
-18,
9,
0,
-1,
4,
19,
-13,
-35,
-21,
36,
17,
-22,
16,
-47,
9,
29,
-24,
0,
-3,
-27,
-27,
4,
-14,
-14,
-15,
-21,
-6,
26,
-8,
13,
-20,
0,
-7,
-9,
16,
-10,
7,
21,
-58,
-37,
-21,
14,
-9,
4,
7,
-45,
8,
14,
-45,
0,
-5,
4,
16,
0,
-32,
-29,
-34,
0,
8,
-30,
-37,
5,
0,
0,
-29,
-9,
-14,
16,
0,
0,
-76,
-44,
-42,
36,
-10,
-34,
-4,
-23,
17,
-7,
-35,
-12,
0,
10,
-11,
-9,
-27,
-31,
-18,
2,
-14,
-105,
-43,
17,
5,
6,
6,
-31,
15,
29,
6,
13,
-10,
-12,
-9,
0,
-14,
4,
9,
-13,
11,
-3,
-56,
-12,
12,
12,
-43,
-12,
-43,
15,
-21,
-12,
-13,
-28,
-14,
2,
14,
0,
-17,
-15,
-4,
13,
13,
8,
9,
5,
-19,
35,
-1,
-5,
16,
-4,
6,
0,
-33,
4,
2,
1,
-21,
5,
-34,
-4,
-27,
-2,
5,
-10,
-30,
1,
13,
-9,
3,
-29,
32,
10,
29,
-9,
5,
-15,
-31,
-1,
-5,
-28,
13,
-30,
-7,
16,
-26,
3,
-9,
30,
-27,
18,
5,
-18,
-34,
-28,
-30,
-1,
-41,
-8,
-18,
1,
-34,
-36,
-11,
-14,
12,
0,
-19,
-13,
-40,
0,
-15,
-18,
4,
-32,
-10,
-1,
-19,
4,
-12,
-4,
-14,
13,
0,
-2,
-34,
-13,
-32,
27,
-10,
-46,
-20,
9,
-6,
-33,
-19,
4,
-10,
-16,
3,
-6,
-39,
13,
-23,
-6,
-24,
-10,
4,
17,
-4,
-7,
-8,
-5,
-8,
2,
16,
-4,
-28,
-16,
-20,
0,
-12,
-22,
12,
-4,
-3,
-34,
8,
-4,
0,
-5,
23,
11,
-36,
-10,
27,
-18,
-12,
-19,
-1,
21,
-4,
5,
-19,
-9,
-27,
12,
-34,
-46,
4,
-26,
-12,
-4,
23,
22,
13,
-12,
-6,
-3,
3,
-4,
36,
-4,
6,
2,
-11,
-2,
2,
-6,
21,
-9,
-17,
8,
6,
3,
3,
-27,
-32,
-15,
-37,
-20,
-17,
-36,
-27,
0,
4,
19,
4,
16,
0,
-25,
-12,
5,
-8,
1,
30,
9,
-20,
10,
7,
-17,
-19,
-15,
-8,
-43,
11,
7,
-26,
-14,
6,
-28,
38,
20,
1,
15,
-16,
17,
-65,
-13,
-22,
4,
-8,
-24,
-32,
-53,
33,
17,
-55,
13,
3,
-33,
29,
-3,
39,
-2,
36,
18,
3,
-11,
-16,
-23,
-26,
-8,
29,
3,
6,
-30,
-30,
14,
-14,
0,
4,
10,
-21,
-28,
-30,
-42,
26,
-11,
-28,
16,
7,
-4,
0,
-16,
34,
4,
-14,
0,
-12,
10,
-2,
-13,
-3,
-26,
-7,
-7,
2,
-2,
12,
-12,
21,
-13,
-19,
-1,
9,
-29,
1,
-10,
21,
-12,
-7,
18,
-8,
-13,
-17,
-12,
7,
-30,
12,
15,
-13,
0,
-25,
-27,
19,
-15,
-16,
-12,
18,
4,
-21,
-40,
27,
-23,
-11,
-13,
15,
-39,
17,
6,
38,
-5,
23,
23,
24,
-23,
-35,
-19,
32,
-7,
22,
11,
5,
10,
-21,
-21,
-7,
-26,
-10,
6,
20,
-1,
-22,
1,
-3,
-12,
-24,
-17,
-16,
-11,
5,
17,
0,
-21,
12,
-7,
13,
-38,
-60,
14,
18,
-18,
-30,
-18,
-8,
-15,
-16,
-14,
-4,
4,
-4,
21,
15,
0,
-13,
-3,
27,
-33,
-17,
0,
-54,
-15,
-3,
32,
-4,
-16,
3,
8,
3,
-25,
-53,
13,
17,
-48,
-6,
-32,
9,
3,
-15,
-8,
-15,
-14,
-23,
9,
0,
-1,
-6,
-11,
0,
-11,
1,
0,
-36,
-16,
-11,
-10,
-2,
-49,
0,
-20,
8,
24,
-27,
-22,
22,
-16,
3,
-9,
26,
-14,
-2,
13,
0,
-25,
-20,
8,
6,
3,
7,
6,
6,
-16,
-24,
-1,
-5,
-44,
-11,
6,
32,
-11,
2,
-14,
-1,
10,
-25,
0,
50,
2,
21,
7,
-3,
-8,
4,
11,
0,
-21,
-49,
11,
26,
4,
19,
24,
22,
-1,
-15,
-19,
18,
-42,
9,
-21,
-1,
-18,
17,
-3,
-19,
0,
-32,
-1,
2,
-29,
10,
9,
9,
6,
-23,
-19,
0,
-48,
-34,
-4,
10,
-13,
6,
-17,
15,
20,
-27,
-1,
14,
-60,
4,
-17,
5,
-25,
-17,
-16,
-17,
-21,
-8,
10,
-17,
-17,
11,
14,
-10,
-15,
15,
-11,
-47,
-17,
-24,
-1,
0,
-2,
-6,
7,
7,
12,
17,
7,
-10,
-42,
2,
-12,
18,
-15,
-50,
-42,
-11,
15,
-24,
-21,
7,
-52,
4,
6,
-44,
-20,
-9,
12,
-53,
-1,
-27,
17,
17,
-8,
12,
-1,
12,
4,
0,
-4,
18,
-39,
-13,
1,
25,
-8,
-56,
-40,
-57,
5,
28,
-9,
9,
-21,
-22,
0,
-31,
2,
9,
-1,
-42,
-17,
-13,
-1,
-14,
-8,
6,
-90,
20,
17,
-7,
6,
-3,
-39,
-4,
25,
-6,
7,
-17,
-58,
-25,
9,
2,
-13,
-16,
-16,
6,
-13,
-50,
2,
-12,
31,
-25,
-30,
-15,
-6,
-29,
5,
21,
-29,
10,
9,
0,
-15,
-6,
-37,
-6,
11,
5,
-7,
10,
-38,
-57,
5,
-15,
-10,
-13,
-27,
8,
5,
-63,
18,
-4,
6,
-32,
-8,
1,
-23,
-46,
-10,
1,
-21,
11,
9,
0,
-4,
17,
-29,
-4,
0,
-9,
8,
14,
-35,
-49,
5,
0,
-1,
1,
-36,
-10,
-5,
-35,
-11,
-31,
-6,
-36,
8,
-17,
-26,
-36,
21,
5,
11,
-14,
-6,
0,
-14,
-4,
-9,
-9,
0,
-5,
-1,
5,
4,
-34,
21,
-19,
-15,
-7,
-35,
-10,
22,
0,
-10,
0,
1,
-27,
14,
-6,
-42,
-42,
4,
11,
5,
-25,
-18,
-12,
-22,
10,
-28,
-17,
5,
-3,
-25,
3,
5,
-41,
-7,
-5,
-19,
0,
-13,
-33,
5,
9,
-34,
-13,
-10,
-27,
-27,
5,
-2,
-18,
6,
-28,
-4,
-3,
-28,
-18,
-9,
-19,
-7,
-20,
15,
7,
-27,
-16,
-10,
-27,
-10,
21,
9,
27,
-14,
-19,
7,
-22,
3,
-16,
-56,
-23,
-6,
-25,
-16,
3,
2,
-10,
-9,
-24,
4,
-65,
-32,
-19,
-25,
3,
6,
15,
1,
-28,
18,
-32,
-10,
-5,
0,
16,
-2,
-33,
-21,
-13,
-2,
5,
-29,
-29,
-21,
-35,
-37,
-10,
-5,
-22,
3,
4,
28,
-9,
-10,
-9,
-35,
1,
18,
27,
-3,
-12,
26,
-3,
-26,
-12,
-17,
-29,
8,
-25,
3,
-7,
-22,
-18,
-37,
3,
-37,
-27,
3,
-18,
-23,
-57,
34,
0,
10,
-17,
7,
-8,
6,
-12,
-15,
11,
-9,
2,
-1,
-13,
-25,
4,
10,
-13,
0,
-9,
-5,
19,
-14,
-33,
-19,
-5,
-48,
50,
-9,
-10,
2,
-13,
-10,
-112,
-6,
-7,
-27,
0,
-39,
-13,
0,
22,
-10,
-34,
32,
-13,
-28,
48,
-6,
24,
-12,
5,
4,
14,
7,
22,
-22,
-28,
-5,
34,
-10,
14,
0,
-12,
2,
-78,
10,
1,
-26,
8,
-8,
-25,
-15,
9,
-36,
-40,
10,
-40,
-25,
-12,
-14,
29,
-4,
-2,
25,
-35,
-3,
7,
18,
-29,
-13,
24,
-21,
8,
28,
-1,
8,
-74,
-5,
-16,
-32,
23,
-22,
-15,
0,
-6,
-50,
26,
4,
-44,
-53,
-3,
-11,
4,
-36,
-6,
8,
14,
-3,
-4,
-5,
-27,
-30,
11,
-31,
34,
3,
-20,
-38,
-78,
0,
-17,
-65,
29,
-23,
0,
21,
20,
-19,
6,
2,
-32,
-39,
-2,
-14,
14,
-1,
-2,
17,
-17,
-12,
3,
30,
-62,
-28,
4,
-28,
4,
-18,
-35,
-20,
-10,
-3,
-12,
-52,
15,
-64,
-11,
8,
20,
-33,
-18,
20,
-39,
-41,
-6,
12,
-1,
-6,
10,
17,
4,
13,
-10,
7,
-35,
13,
0,
-5,
23,
12,
-3,
23,
-74,
-23,
20,
-58,
-22,
-24,
-21,
3,
32,
-4,
0,
-14,
-39,
7,
10,
-5,
36,
-7,
-25,
0,
23,
-29,
-33,
25,
-74,
-7,
-5,
16,
13,
-11,
-25,
34,
-42,
-28,
-15,
-65,
-29,
-41,
-29,
-9,
40,
-16,
-21,
0,
-62,
34,
-9,
-13,
12,
-5,
-9,
-4,
2,
-28,
-28,
37,
-71,
-38,
19,
8,
-8,
-27,
-38,
0,
-75,
-21,
-9,
-49,
-7,
-35,
-34,
26,
23,
-23,
-18,
-19,
-57,
36,
0,
-24,
18,
21,
0,
-9,
27,
-14,
2,
9,
-63,
-52,
-1,
14,
-23,
-14,
3,
25,
-24,
-20,
-20,
-56,
16,
1,
-50,
-12,
17,
-51,
-7,
12,
-12,
18,
-14,
-22,
-21,
-13,
22,
-12,
-13,
-4,
16,
-25,
-64,
-44,
1,
15,
-2,
-33,
-15,
4,
-29,
-17,
-11,
-47,
0,
-16,
-37,
30,
40,
-62,
0,
-2,
-37,
26,
1,
-26,
15,
-7,
7,
-9,
-16,
-6,
-2,
-18,
-37,
-36,
8,
15,
25,
2,
10,
-41,
-47,
0,
-7,
-58,
2,
-12,
-36,
21,
16,
-47,
-46,
1,
-38,
7,
-38,
-18,
-13,
-19,
-31,
-3,
-18,
-4,
8,
-3,
-55,
-21,
23,
22,
-15,
6,
-14,
-34,
-22,
5,
7,
-51,
-1,
-8,
-20,
14,
29,
-55,
-10,
-26,
-43,
-1,
-21,
-12,
21,
-31,
-16,
-1,
0,
-9,
-10,
-4,
-38,
-6,
20,
17,
-17,
-1,
-12,
-24,
-9,
-15,
-6,
-60,
-6,
-10,
-12,
8,
22,
-40,
-1,
-18,
-18,
0,
6,
-14,
-8,
-8,
-5,
26,
-15,
21,
-7,
2,
-59,
-35,
42,
15,
-20,
-11,
-15,
-5,
-11,
10,
17,
-52,
28,
0,
-15,
28,
14,
-13,
-30,
-25,
-43,
-14,
4,
17,
15,
-4,
11,
-14,
-2,
11,
11,
6,
-15,
-5,
32,
28,
-31,
7,
9,
0,
-18,
-8,
21,
-76,
-9,
-19,
-43,
8,
20,
5,
8,
-31,
-36,
13,
0,
3,
4,
-21,
-21,
7,
-4,
3,
-2,
10,
-31,
1,
38,
26,
-48,
-4,
-7,
-12,
12,
-12,
-4,
-47,
-24,
4,
-19,
12,
17,
3,
21,
-24,
-39,
13,
-1,
-6,
-5,
-7,
-17,
14,
5,
0,
-16,
-4,
-23,
9,
7,
46,
-29,
18,
-14,
24,
22,
-23,
-3,
-22,
-18,
5,
-9,
23,
29,
-5,
-3,
-13,
-27,
5,
8,
-30,
9,
-10,
-9,
9,
9,
-16,
-11,
-8,
-45,
-10,
10,
28,
0,
-11,
-12,
25,
1,
-10,
-20,
-15,
-25,
-8,
-7,
13,
-12,
0,
-24,
-4,
-18,
-14,
-20,
-13,
16,
-28,
-32,
-4,
23,
-27,
-32,
-32,
-26,
-4,
19,
-13,
-12,
0,
-44,
25,
-10,
-18,
-39,
-6,
-27,
-20,
-31,
1,
17,
44,
-8,
16,
-5,
5,
18,
-22,
26,
-11,
-3,
8,
-18,
2,
0,
-25,
1,
-35,
-37,
5,
18,
0,
-24,
4,
-23,
-11,
-3,
8,
0,
-3,
-38,
-19,
8,
18,
1,
-15,
-3,
0,
-5,
17,
25,
4,
-52,
-20,
19,
4,
-16,
1,
-29,
12,
-40,
0,
4,
-20,
-83,
27,
-6,
-6,
-5,
14,
-2,
0,
-24,
21,
25,
26,
-26,
18,
-24,
-8,
-4,
10,
13,
-18,
-5,
1,
23,
-24,
-31,
-27,
-15,
-44,
6,
-8,
-41,
36,
11,
-1,
-34,
-8,
5,
0,
18,
-23,
-14,
2,
51,
-4,
-47,
57,
7,
-16,
28,
-2,
70,
-2,
7,
34,
36,
-13,
9,
-11,
0,
8,
-40,
9,
-36,
34,
-17,
-36,
-63,
11,
8,
-35,
27,
-2,
6,
7,
35,
-24,
-57,
40,
1,
-46,
10,
-4,
15,
-5,
-6,
26,
-9,
-4,
27,
-1,
-16,
-4,
-17,
-32,
-96,
25,
-14,
-15,
-46,
1,
-22,
-35,
-4,
-45,
-5,
-2,
25,
-21,
-30,
32,
-28,
-65,
16,
-24,
40,
-19,
-15,
14,
-3,
-1,
17,
-6,
-23,
-16,
5,
-39,
-59,
14,
10,
-61,
-53,
-18,
0,
-24,
19,
-23,
0,
14,
-5,
-25,
-26,
11,
-18,
-47,
23,
3,
42,
-6,
-54,
15,
-5,
-12,
-16,
29,
-10,
-9,
8,
-17,
-56,
-2,
-1,
-16,
-89,
5,
12,
-24,
-1,
-17,
-17,
61,
43,
-38,
-23,
25,
-30,
-29,
29,
4,
23,
-1,
-29,
25,
-2,
7,
3,
15,
-30,
-43,
12,
-7,
-55,
16,
-29,
14,
-75,
42,
3,
-59,
9,
-38,
-6,
-4,
49,
-6,
-65,
17,
-1,
5,
10,
8,
42,
-8,
-14,
-16,
0,
-5,
-28,
52,
-21,
-28,
-10,
-33,
-45,
-3,
-36,
-10,
-63,
2,
10,
-64,
26,
-37,
4,
30,
12,
-23,
-79,
2,
10,
17,
-3,
-11,
22,
32,
-21,
-3,
5,
-20,
-27,
20,
-29,
-55,
10,
-17,
-18,
-11,
-46,
26,
-104,
0,
-21,
-66,
24,
17,
-23,
22,
5,
-11,
-99,
16,
14,
18,
2,
-22,
5,
-2,
-29,
9,
-5,
-23,
-36,
10,
-7,
-47,
0,
-17,
-16,
-30,
-38,
13,
-109,
8,
-18,
-69,
24,
19,
-21,
8,
20,
-37,
-77,
14,
24,
4,
17,
-26,
-6,
6,
6,
18,
-23,
-12,
-46,
44,
-17,
-49,
-2,
-22,
19,
-12,
-46,
-4,
-88,
0,
-50,
-45,
12,
11,
-36,
-2,
14,
-70,
-77,
20,
-4,
21,
-1,
2,
-8,
-34,
0,
-6,
-14,
4,
-33,
31,
-23,
-18,
6,
-27,
14,
-4,
-62,
-6,
-77,
10,
-47,
-71,
45,
20,
-24,
7,
11,
-54,
-10,
-3,
-5,
37,
1,
-32,
5,
-22,
2,
3,
10,
-1,
-16,
-10,
-27,
-38,
-9,
-31,
20,
9,
-66,
38,
-90,
-13,
10,
-92,
20,
-1,
-55,
-14,
0,
-35,
19,
32,
-18,
28,
1,
-24,
-21,
-26,
13,
-12,
34,
-7,
-60,
-2,
-7,
-6,
2,
-31,
-4,
-2,
-60,
1,
-45,
-10,
-15,
-120,
5,
-7,
-44,
-3,
9,
-66,
33,
19,
-15,
28,
-10,
-1,
1,
-7,
-4,
29,
21,
17,
-47,
9,
-43,
-20,
-3,
17,
-24,
11,
-68,
32,
-105,
-27,
2,
-89,
7,
-23,
-1,
0,
18,
-25,
26,
-1,
-11,
31,
-17,
-1,
6,
-22,
-4,
39,
16,
12,
-43,
-16,
-6,
-22,
-11,
-17,
-34,
7,
-75,
32,
-82,
-2,
3,
-81,
32,
-22,
9,
0,
21,
-51,
10,
5,
-9,
18,
-19,
9,
20,
-19,
-11,
16,
16,
3,
-65,
0,
-18,
-39,
-43,
-13,
-36,
-1,
-61,
10,
-63,
-5,
20,
-33,
-12,
-2,
18,
-4,
7,
-16,
20,
45,
-41,
32,
-13,
3,
21,
-24,
-4,
30,
-3,
4,
-49,
-5,
-32,
-22,
-60,
0,
3,
-10,
-40,
-18,
-24,
10,
28,
-47,
-13,
-34,
5,
7,
44,
0,
-3,
-2,
-19,
17,
4,
-2,
-6,
-20,
-26,
16,
39,
4,
-57,
-21,
-16,
-2,
-24,
-34,
-3,
22,
-35,
7,
-28,
-7,
25,
-3,
-2,
-38,
-9,
0,
8,
40,
0,
4,
-37,
60,
23,
15,
33,
6,
-28,
27,
16,
-31,
-6,
-46,
-50,
-14,
1,
-1,
13,
0,
-39,
-7,
0,
9,
21,
-27,
-28,
-32,
-8,
28,
48,
51,
-24,
2,
-27,
69,
7,
3,
14,
3,
-33,
12,
-2,
-46,
-36,
-18,
-28,
1,
-23,
-16,
15,
-10,
-16,
-9,
-24,
-13,
-9,
12,
1,
0,
-32,
30,
9,
0,
-27,
0,
3,
60,
9,
-12,
33,
-22,
-20,
8,
21,
-35,
-21,
4,
-2,
-1,
-30,
-42,
18,
-7,
-55,
-1,
0,
0,
12,
22,
-11,
-7,
-43,
89,
-2,
16,
-69,
45,
-5,
72,
52,
3,
71,
-5,
-31,
20,
52,
1,
2,
-8,
-10,
-9;